#include "model_data.h"

unsigned char model_exports_model_quant_tflite[] = {
  0x1c, 0x00, 0x00, 0x00, 0x54, 0x46, 0x4c, 0x33, 0x14, 0x00, 0x20, 0x00,
  0x1c, 0x00, 0x18, 0x00, 0x14, 0x00, 0x10, 0x00, 0x0c, 0x00, 0x00, 0x00,
  0x08, 0x00, 0x04, 0x00, 0x14, 0x00, 0x00, 0x00, 0x1c, 0x00, 0x00, 0x00,
  0x98, 0x00, 0x00, 0x00, 0xf0, 0x00, 0x00, 0x00, 0xd8, 0x3d, 0x00, 0x00,
  0xe8, 0x3d, 0x00, 0x00, 0x84, 0x62, 0x00, 0x00, 0x03, 0x00, 0x00, 0x00,
  0x01, 0x00, 0x00, 0x00, 0x10, 0x00, 0x00, 0x00, 0x00, 0x00, 0x0a, 0x00,
  0x10, 0x00, 0x0c, 0x00, 0x08, 0x00, 0x04, 0x00, 0x0a, 0x00, 0x00, 0x00,
  0x0c, 0x00, 0x00, 0x00, 0x1c, 0x00, 0x00, 0x00, 0x3c, 0x00, 0x00, 0x00,
  0x0f, 0x00, 0x00, 0x00, 0x73, 0x65, 0x72, 0x76, 0x69, 0x6e, 0x67, 0x5f,
  0x64, 0x65, 0x66, 0x61, 0x75, 0x6c, 0x74, 0x00, 0x01, 0x00, 0x00, 0x00,
  0x04, 0x00, 0x00, 0x00, 0x90, 0xff, 0xff, 0xff, 0x17, 0x00, 0x00, 0x00,
  0x04, 0x00, 0x00, 0x00, 0x08, 0x00, 0x00, 0x00, 0x6f, 0x75, 0x74, 0x70,
  0x75, 0x74, 0x5f, 0x30, 0x00, 0x00, 0x00, 0x00, 0x01, 0x00, 0x00, 0x00,
  0x04, 0x00, 0x00, 0x00, 0xbe, 0xc2, 0xff, 0xff, 0x04, 0x00, 0x00, 0x00,
  0x0c, 0x00, 0x00, 0x00, 0x6b, 0x65, 0x72, 0x61, 0x73, 0x5f, 0x74, 0x65,
  0x6e, 0x73, 0x6f, 0x72, 0x00, 0x00, 0x00, 0x00, 0x02, 0x00, 0x00, 0x00,
  0x34, 0x00, 0x00, 0x00, 0x04, 0x00, 0x00, 0x00, 0xdc, 0xff, 0xff, 0xff,
  0x1a, 0x00, 0x00, 0x00, 0x04, 0x00, 0x00, 0x00, 0x13, 0x00, 0x00, 0x00,
  0x43, 0x4f, 0x4e, 0x56, 0x45, 0x52, 0x53, 0x49, 0x4f, 0x4e, 0x5f, 0x4d,
  0x45, 0x54, 0x41, 0x44, 0x41, 0x54, 0x41, 0x00, 0x08, 0x00, 0x0c, 0x00,
  0x08, 0x00, 0x04, 0x00, 0x08, 0x00, 0x00, 0x00, 0x19, 0x00, 0x00, 0x00,
  0x04, 0x00, 0x00, 0x00, 0x13, 0x00, 0x00, 0x00, 0x6d, 0x69, 0x6e, 0x5f,
  0x72, 0x75, 0x6e, 0x74, 0x69, 0x6d, 0x65, 0x5f, 0x76, 0x65, 0x72, 0x73,
  0x69, 0x6f, 0x6e, 0x00, 0x1b, 0x00, 0x00, 0x00, 0xe4, 0x3c, 0x00, 0x00,
  0xdc, 0x3c, 0x00, 0x00, 0xc4, 0x3c, 0x00, 0x00, 0x9c, 0x3c, 0x00, 0x00,
  0x8c, 0x3b, 0x00, 0x00, 0x7c, 0x3a, 0x00, 0x00, 0x6c, 0x36, 0x00, 0x00,
  0x5c, 0x2d, 0x00, 0x00, 0xbc, 0x2c, 0x00, 0x00, 0x6c, 0x2c, 0x00, 0x00,
  0x64, 0x2c, 0x00, 0x00, 0x5c, 0x2c, 0x00, 0x00, 0x4c, 0x08, 0x00, 0x00,
  0xfc, 0x05, 0x00, 0x00, 0xec, 0x04, 0x00, 0x00, 0xe4, 0x04, 0x00, 0x00,
  0xd4, 0x00, 0x00, 0x00, 0xcc, 0x00, 0x00, 0x00, 0xc4, 0x00, 0x00, 0x00,
  0xbc, 0x00, 0x00, 0x00, 0xb4, 0x00, 0x00, 0x00, 0xac, 0x00, 0x00, 0x00,
  0xa4, 0x00, 0x00, 0x00, 0x9c, 0x00, 0x00, 0x00, 0x94, 0x00, 0x00, 0x00,
  0x74, 0x00, 0x00, 0x00, 0x04, 0x00, 0x00, 0x00, 0xa6, 0xc3, 0xff, 0xff,
  0x04, 0x00, 0x00, 0x00, 0x60, 0x00, 0x00, 0x00, 0x0c, 0x00, 0x00, 0x00,
  0x08, 0x00, 0x0e, 0x00, 0x08, 0x00, 0x04, 0x00, 0x08, 0x00, 0x00, 0x00,
  0x10, 0x00, 0x00, 0x00, 0x28, 0x00, 0x00, 0x00, 0x00, 0x00, 0x06, 0x00,
  0x08, 0x00, 0x04, 0x00, 0x06, 0x00, 0x00, 0x00, 0x04, 0x00, 0x00, 0x00,
  0x01, 0x00, 0x00, 0x00, 0xeb, 0x03, 0x00, 0x00, 0x0c, 0x00, 0x18, 0x00,
  0x14, 0x00, 0x10, 0x00, 0x0c, 0x00, 0x04, 0x00, 0x0c, 0x00, 0x00, 0x00,
  0xd2, 0xff, 0xfa, 0x5c, 0xfc, 0xc8, 0x92, 0xe2, 0x02, 0x00, 0x00, 0x00,
  0x02, 0x00, 0x00, 0x00, 0x04, 0x00, 0x00, 0x00, 0x06, 0x00, 0x00, 0x00,
  0x32, 0x2e, 0x32, 0x30, 0x2e, 0x30, 0x00, 0x00, 0x12, 0xc4, 0xff, 0xff,
  0x04, 0x00, 0x00, 0x00, 0x10, 0x00, 0x00, 0x00, 0x31, 0x2e, 0x31, 0x34,
  0x2e, 0x30, 0x00, 0x00, 0x00, 0x00, 0x00, 0x00, 0x00, 0x00, 0x00, 0x00,
  0x2c, 0xa0, 0xff, 0xff, 0x30, 0xa0, 0xff, 0xff, 0x34, 0xa0, 0xff, 0xff,
  0x38, 0xa0, 0xff, 0xff, 0x3c, 0xa0, 0xff, 0xff, 0x40, 0xa0, 0xff, 0xff,
  0x44, 0xa0, 0xff, 0xff, 0x48, 0xa0, 0xff, 0xff, 0x4e, 0xc4, 0xff, 0xff,
  0x04, 0x00, 0x00, 0x00, 0x00, 0x04, 0x00, 0x00, 0xb6, 0x24, 0xcd, 0xbe,
  0xac, 0x11, 0xf5, 0xd2, 0x6b, 0x7f, 0x27, 0xfb, 0x9f, 0x07, 0xc3, 0xe0,
  0x1a, 0x19, 0x84, 0x02, 0x16, 0x06, 0x81, 0x12, 0x64, 0x26, 0xa2, 0x2a,
  0x53, 0xf1, 0xae, 0x15, 0x4f, 0x4a, 0x7f, 0x6e, 0x8f, 0xda, 0x99, 0xe4,
  0x0f, 0xd0, 0xaf, 0xc8, 0xda, 0x06, 0xe8, 0x29, 0xe0, 0x8c, 0xa2, 0x38,
  0xd7, 0xdd, 0x02, 0xf5, 0x23, 0x7f, 0x66, 0xf0, 0xbf, 0x18, 0xec, 0x9c,
  0xe7, 0x88, 0x2d, 0x0d, 0xaf, 0xdf, 0x57, 0x09, 0x98, 0x81, 0xe1, 0xad,
  0x49, 0x62, 0x2b, 0x4a, 0x00, 0xe5, 0x1f, 0x04, 0x29, 0x33, 0xf0, 0xcd,
  0x14, 0xef, 0xd9, 0xaf, 0x7f, 0x29, 0xc8, 0xfa, 0xb5, 0x9f, 0x34, 0xb9,
  0x9e, 0xaf, 0x29, 0xed, 0xb2, 0xe0, 0x51, 0x47, 0xa9, 0xfe, 0x7f, 0x63,
  0x19, 0x2e, 0x7f, 0x60, 0x02, 0x13, 0x4c, 0x62, 0xcf, 0xa7, 0x17, 0x3a,
  0xef, 0xb4, 0xe4, 0x1b, 0x02, 0x20, 0x4d, 0x7f, 0x0d, 0x00, 0x04, 0x63,
  0x15, 0x3c, 0x1d, 0x1e, 0xec, 0x10, 0xf6, 0x1f, 0x22, 0x6e, 0xdd, 0x6c,
  0xb2, 0xc0, 0x81, 0x3a, 0xd8, 0xde, 0xbc, 0x2b, 0x59, 0x5c, 0xf7, 0xe9,
  0xd3, 0xe1, 0xaf, 0xc5, 0xba, 0xe2, 0x9e, 0xf9, 0xeb, 0x09, 0xd1, 0x0d,
  0xa5, 0xcd, 0x81, 0xbb, 0xdc, 0x41, 0x36, 0x81, 0x14, 0x3f, 0x1c, 0x83,
  0x31, 0x52, 0x54, 0xd4, 0x08, 0x20, 0xff, 0xc3, 0x19, 0xa0, 0xa0, 0xd0,
  0x3f, 0xdc, 0xbd, 0xae, 0x59, 0x15, 0xd0, 0xcb, 0x7f, 0x63, 0x2c, 0xd0,
  0xb8, 0x37, 0x3e, 0x1c, 0xf1, 0x25, 0x2a, 0x09, 0x3f, 0xee, 0xc0, 0xf3,
  0x4f, 0xee, 0x81, 0x0c, 0x7f, 0x05, 0x1a, 0xbe, 0x53, 0x14, 0xf2, 0x03,
  0x3e, 0x25, 0xeb, 0xb9, 0x75, 0x0f, 0xed, 0x1f, 0x2a, 0x81, 0xb6, 0x7e,
  0x31, 0xb0, 0xcb, 0x3d, 0x08, 0xaf, 0xf2, 0x54, 0xfd, 0xe9, 0xef, 0x30,
  0x2e, 0x1e, 0x01, 0xf6, 0x62, 0x55, 0x00, 0xc2, 0x4f, 0x3b, 0xe4, 0x81,
  0xfb, 0xd1, 0xe3, 0x91, 0x13, 0x19, 0xf2, 0xc8, 0x4e, 0x09, 0x00, 0x9d,
  0x7f, 0x1e, 0xfb, 0xb3, 0x69, 0x05, 0xd8, 0xa6, 0x9d, 0xe7, 0xce, 0xbf,
  0xa3, 0xbf, 0xcd, 0xb5, 0x28, 0x38, 0x37, 0x16, 0x7f, 0x45, 0x03, 0x25,
  0x07, 0x11, 0xc7, 0xc8, 0xf9, 0x3d, 0x7f, 0x2e, 0x11, 0xe2, 0x46, 0x4e,
  0xb1, 0xdd, 0xc0, 0xeb, 0x1e, 0xf0, 0xc9, 0x81, 0x5c, 0x54, 0x09, 0xfb,
  0x23, 0x44, 0xe7, 0xd9, 0xce, 0xe4, 0xd2, 0xe3, 0xc6, 0xc9, 0x1f, 0x77,
  0xe2, 0x81, 0xe5, 0x49, 0xee, 0xa5, 0xf0, 0x34, 0x20, 0xc6, 0xc3, 0x15,
  0x37, 0x2d, 0x1d, 0x06, 0x6d, 0x2d, 0xf6, 0xfd, 0xc5, 0xb7, 0x81, 0xac,
  0xd3, 0xf0, 0xeb, 0xfa, 0x09, 0x41, 0x0e, 0xc7, 0x6f, 0x7f, 0x1f, 0xe1,
  0x61, 0x6f, 0xfe, 0xc0, 0x3a, 0x66, 0xfd, 0xdd, 0x44, 0x50, 0x1b, 0x0e,
  0x8e, 0x97, 0x81, 0x9d, 0xea, 0xd1, 0xf8, 0x2f, 0x21, 0x3a, 0x4f, 0x48,
  0xb5, 0xc5, 0xd0, 0xdb, 0x3e, 0x16, 0x22, 0x3c, 0x7f, 0x7f, 0x33, 0x6b,
  0x15, 0x2c, 0xc1, 0x17, 0xe8, 0xea, 0x81, 0xa7, 0xf3, 0xe5, 0xd8, 0x27,
  0x03, 0xfd, 0x36, 0x2d, 0xf6, 0x2f, 0x6c, 0x4a, 0x35, 0x0c, 0x7f, 0x5c,
  0x16, 0x1a, 0x2e, 0x34, 0xe7, 0xdd, 0x04, 0xd6, 0xcd, 0xd4, 0x19, 0x08,
  0xaf, 0x2c, 0xd2, 0x33, 0x99, 0x38, 0xd3, 0x10, 0x81, 0x43, 0x0b, 0x30,
  0xb0, 0x25, 0x0f, 0x0d, 0xea, 0xc5, 0x57, 0x44, 0x50, 0x2e, 0x41, 0x32,
  0x36, 0x81, 0xa8, 0xe1, 0x1d, 0xf9, 0x12, 0xf4, 0x0e, 0x0a, 0x1c, 0x4a,
  0xbe, 0x00, 0xca, 0x29, 0x81, 0x8b, 0x9a, 0xcc, 0x4b, 0x43, 0x37, 0xfb,
  0xec, 0xb6, 0xd3, 0xc9, 0xe3, 0xcd, 0x98, 0x81, 0x20, 0x39, 0xf5, 0xce,
  0x4c, 0x54, 0x3f, 0x22, 0x27, 0xd6, 0x2e, 0x9a, 0xdf, 0x3a, 0x5b, 0x81,
  0xd5, 0x67, 0x27, 0x8f, 0xd2, 0x6f, 0x30, 0xda, 0x1c, 0x3f, 0x34, 0x7f,
  0xa4, 0xdf, 0xc8, 0x0d, 0x83, 0x00, 0xd4, 0xfb, 0xa3, 0x25, 0x20, 0xfa,
  0x81, 0xa4, 0xbd, 0x9b, 0x8e, 0xef, 0xc7, 0x1f, 0x3c, 0x55, 0x75, 0x73,
  0x69, 0x5a, 0x44, 0x79, 0x3e, 0x61, 0x18, 0x7f, 0xf7, 0x43, 0x23, 0x1c,
  0xff, 0xfc, 0xf5, 0x37, 0x57, 0x39, 0x21, 0x3a, 0x1a, 0xd2, 0xdf, 0xf5,
  0x7f, 0x0c, 0xf5, 0x05, 0x62, 0xf5, 0xd0, 0xd3, 0x2a, 0xd6, 0xe7, 0xdc,
  0xae, 0xe7, 0x9b, 0x9a, 0xd2, 0xd0, 0xeb, 0xa5, 0xf7, 0xf0, 0xce, 0x81,
  0x6a, 0x40, 0x42, 0xdb, 0xfa, 0x8d, 0x8d, 0x92, 0x11, 0xbf, 0xa3, 0xf4,
  0x16, 0x34, 0x5d, 0x49, 0x20, 0x7f, 0x67, 0x56, 0xc4, 0x8f, 0x96, 0x81,
  0xca, 0xe9, 0x0d, 0xcf, 0x0c, 0x1c, 0x3a, 0x09, 0x86, 0xa6, 0xce, 0xa3,
  0xe1, 0xa5, 0xeb, 0xec, 0x07, 0xa6, 0x03, 0xfa, 0xf6, 0xdc, 0x60, 0xf8,
  0x30, 0x15, 0x7f, 0x49, 0xf0, 0x96, 0x4d, 0x3b, 0x10, 0x22, 0x03, 0x26,
  0x43, 0x81, 0xd7, 0xd5, 0x0b, 0x98, 0x30, 0xb9, 0x7f, 0x27, 0x07, 0x5f,
  0x4f, 0xea, 0xc7, 0xcd, 0xed, 0x03, 0xec, 0xe4, 0xe8, 0xc1, 0x88, 0xa4,
  0xe0, 0xe0, 0x30, 0x41, 0xc3, 0x9d, 0xdf, 0xc3, 0xc5, 0xef, 0xcd, 0xbc,
  0x3a, 0x7f, 0x5e, 0x2d, 0x49, 0xca, 0xd8, 0xb6, 0x7f, 0xe7, 0x90, 0x02,
  0x7f, 0x15, 0x00, 0x16, 0xd7, 0xcb, 0x99, 0xd6, 0xce, 0xbb, 0xd7, 0xd7,
  0x7f, 0x6d, 0x79, 0x4e, 0xc1, 0x9a, 0x8c, 0xb9, 0x45, 0xf0, 0xe4, 0x02,
  0x42, 0x35, 0x7f, 0x6d, 0x1d, 0xf7, 0x2a, 0x64, 0xd2, 0xa5, 0xc2, 0xf4,
  0x9c, 0xbc, 0xa9, 0x00, 0x51, 0x3e, 0x65, 0x7f, 0xcf, 0xd9, 0x0e, 0x15,
  0xf0, 0xc9, 0x09, 0xfa, 0xcb, 0xb9, 0xcf, 0xc8, 0xe1, 0xff, 0xcd, 0x1c,
  0xb4, 0x81, 0xae, 0x0e, 0xce, 0xed, 0xcb, 0x0a, 0x12, 0xc4, 0xcf, 0x37,
  0xfa, 0xb1, 0xb8, 0x34, 0x03, 0x81, 0xfc, 0x4e, 0xe5, 0xac, 0x27, 0x2b,
  0x00, 0xc1, 0x62, 0x3d, 0xe4, 0x52, 0x3b, 0x4c, 0xc9, 0xf5, 0x81, 0xf2,
  0x91, 0xf0, 0xb0, 0xeb, 0xd3, 0xfb, 0xbe, 0xdc, 0x37, 0xdd, 0xae, 0x81,
  0x46, 0x10, 0xde, 0x90, 0x72, 0x37, 0xf5, 0xcb, 0x45, 0x23, 0x18, 0x21,
  0xd1, 0xf3, 0x06, 0xfa, 0xe8, 0xc3, 0x1a, 0x7f, 0xde, 0xe3, 0x23, 0x7d,
  0xad, 0xc6, 0x12, 0x66, 0x1d, 0x00, 0x65, 0x1a, 0xfe, 0x81, 0xd1, 0xdd,
  0x6c, 0xe0, 0xd0, 0xf7, 0x0c, 0xfe, 0xd3, 0x0f, 0xbf, 0x13, 0xb8, 0x81,
  0xea, 0x26, 0xda, 0x0f, 0x02, 0x26, 0xf1, 0x4f, 0x06, 0x13, 0xf7, 0x63,
  0x22, 0x31, 0xa2, 0xee, 0x49, 0xf8, 0x84, 0xb9, 0x6d, 0x41, 0xc0, 0xb7,
  0x2c, 0x3a, 0x81, 0xd2, 0xad, 0xcd, 0xed, 0xdb, 0xab, 0x9c, 0xf3, 0x14,
  0xc1, 0xe8, 0x09, 0xf2, 0xcd, 0x81, 0xdb, 0xb1, 0x29, 0x2b, 0x48, 0x73,
  0xeb, 0xf3, 0xf0, 0x0a, 0xb9, 0xc2, 0x0c, 0x62, 0x94, 0x81, 0x8a, 0x0c,
  0x2a, 0x4e, 0x1b, 0xae, 0x4b, 0x1a, 0xf5, 0xae, 0x7f, 0xe6, 0xc1, 0xb7,
  0x64, 0xdf, 0xb0, 0xd7, 0x8c, 0xa5, 0xe8, 0x06, 0x88, 0x01, 0xf3, 0x34,
  0x84, 0x01, 0xf3, 0x54, 0x9f, 0xbc, 0x2b, 0x7f, 0x66, 0x4f, 0x6f, 0x24,
  0xb5, 0x8a, 0x81, 0xb0, 0xf4, 0xe0, 0x03, 0x1f, 0xfb, 0xcd, 0xca, 0xf6,
  0x21, 0x36, 0x0c, 0xcf, 0x29, 0x17, 0x20, 0xa1, 0x12, 0x28, 0xf3, 0x81,
  0x06, 0x01, 0xf9, 0xbb, 0xd5, 0xfc, 0x53, 0x95, 0xe1, 0x16, 0x7f, 0x92,
  0xdc, 0x48, 0x50, 0xad, 0xbe, 0x54, 0x37, 0xcd, 0x7f, 0x52, 0x3f, 0x31,
  0x2f, 0xc0, 0xbb, 0xa9, 0xd5, 0xe4, 0xcf, 0xd8, 0x8f, 0xa4, 0xce, 0xf8,
  0x58, 0xa4, 0xff, 0xff, 0x5e, 0xc8, 0xff, 0xff, 0x04, 0x00, 0x00, 0x00,
  0x00, 0x01, 0x00, 0x00, 0x00, 0x00, 0x00, 0x00, 0x00, 0x00, 0x00, 0x00,
  0x00, 0x00, 0x00, 0x00, 0x00, 0x00, 0x00, 0x00, 0x00, 0x00, 0x00, 0x00,
  0x00, 0x00, 0x00, 0x00, 0x00, 0x00, 0x00, 0x00, 0x00, 0x00, 0x00, 0x00,
  0x00, 0x00, 0x00, 0x00, 0x00, 0x00, 0x00, 0x00, 0x00, 0x00, 0x00, 0x00,
  0x00, 0x00, 0x00, 0x00, 0x00, 0x00, 0x00, 0x00, 0x00, 0x00, 0x00, 0x00,
  0x00, 0x00, 0x00, 0x00, 0x00, 0x00, 0x00, 0x00, 0x00, 0x00, 0x00, 0x00,
  0x00, 0x00, 0x00, 0x00, 0x00, 0x00, 0x00, 0x00, 0x00, 0x00, 0x00, 0x00,
  0x00, 0x00, 0x00, 0x00, 0x00, 0x00, 0x00, 0x00, 0x00, 0x00, 0x00, 0x00,
  0x00, 0x00, 0x00, 0x00, 0x00, 0x00, 0x00, 0x00, 0x00, 0x00, 0x00, 0x00,
  0x00, 0x00, 0x00, 0x00, 0x00, 0x00, 0x00, 0x00, 0x00, 0x00, 0x00, 0x00,
  0x00, 0x00, 0x00, 0x00, 0x00, 0x00, 0x00, 0x00, 0x00, 0x00, 0x00, 0x00,
  0x00, 0x00, 0x00, 0x00, 0x00, 0x00, 0x00, 0x00, 0x00, 0x00, 0x00, 0x00,
  0x00, 0x00, 0x00, 0x00, 0x00, 0x00, 0x00, 0x00, 0x00, 0x00, 0x00, 0x00,
  0x00, 0x00, 0x00, 0x00, 0x00, 0x00, 0x00, 0x00, 0x00, 0x00, 0x00, 0x00,
  0x00, 0x00, 0x00, 0x00, 0x00, 0x00, 0x00, 0x00, 0x00, 0x00, 0x00, 0x00,
  0x00, 0x00, 0x00, 0x00, 0x00, 0x00, 0x00, 0x00, 0x00, 0x00, 0x00, 0x00,
  0x00, 0x00, 0x00, 0x00, 0x00, 0x00, 0x00, 0x00, 0x00, 0x00, 0x00, 0x00,
  0x00, 0x00, 0x00, 0x00, 0x00, 0x00, 0x00, 0x00, 0x00, 0x00, 0x00, 0x00,
  0x00, 0x00, 0x00, 0x00, 0x00, 0x00, 0x00, 0x00, 0x00, 0x00, 0x00, 0x00,
  0x00, 0x00, 0x00, 0x00, 0x00, 0x00, 0x00, 0x00, 0x00, 0x00, 0x00, 0x00,
  0x00, 0x00, 0x00, 0x00, 0x00, 0x00, 0x00, 0x00, 0x00, 0x00, 0x00, 0x00,
  0x00, 0x00, 0x00, 0x00, 0x00, 0x00, 0x00, 0x00, 0x6a, 0xc9, 0xff, 0xff,
  0x04, 0x00, 0x00, 0x00, 0x40, 0x02, 0x00, 0x00, 0x7f, 0x6c, 0x6a, 0xc5,
  0xd9, 0x9e, 0x26, 0xe5, 0xd8, 0x20, 0x46, 0x25, 0x81, 0x1a, 0x81, 0x7f,
  0x81, 0xf8, 0x61, 0x2a, 0x56, 0x61, 0x94, 0x81, 0x21, 0x89, 0xe3, 0x17,
  0x81, 0x3a, 0x6c, 0xe9, 0x23, 0x54, 0x7f, 0xfc, 0xf9, 0x5e, 0x56, 0xc2,
  0xc6, 0x0b, 0x58, 0xda, 0xaa, 0x7f, 0xa3, 0x56, 0x6f, 0x0e, 0x74, 0x60,
  0xfe, 0x28, 0xf0, 0x05, 0x10, 0x40, 0x21, 0x7f, 0x7f, 0xdb, 0xa2, 0x04,
  0x14, 0x31, 0x26, 0xd4, 0xcd, 0xec, 0x21, 0x0c, 0xe9, 0x0d, 0x58, 0xf0,
  0x20, 0xe6, 0xcc, 0xf7, 0xf5, 0xad, 0x5c, 0xdb, 0x31, 0xae, 0xc2, 0x1f,
  0x7f, 0xb8, 0xbc, 0xdd, 0xcd, 0xa8, 0x1e, 0xe7, 0x0b, 0xcc, 0x56, 0x9e,
  0xe8, 0x7f, 0x1e, 0xcc, 0xf3, 0x8e, 0x64, 0xbe, 0xf1, 0x7e, 0x18, 0x7f,
  0xe2, 0x24, 0xd5, 0x19, 0x07, 0xd1, 0xb5, 0xf0, 0x05, 0x81, 0xf3, 0x0b,
  0x06, 0xe7, 0x7f, 0x81, 0xeb, 0xde, 0x1f, 0x29, 0x05, 0xb0, 0x9c, 0x7f,
  0xd0, 0x9a, 0xf2, 0x60, 0x4c, 0xea, 0x4a, 0x11, 0xf2, 0xb5, 0x1d, 0x7f,
  0x7f, 0x95, 0x81, 0x0a, 0x5f, 0x8a, 0x7f, 0x7f, 0x25, 0xc6, 0xbb, 0xce,
  0x7f, 0x23, 0x19, 0x8e, 0xc3, 0x88, 0x81, 0x81, 0xe7, 0x81, 0x1f, 0x95,
  0x1d, 0x35, 0x7f, 0x31, 0xe8, 0x7f, 0x89, 0x81, 0x4b, 0xb4, 0x81, 0x96,
  0xbf, 0xe1, 0x9d, 0x2d, 0x41, 0x7f, 0x7a, 0x6a, 0x6c, 0x4d, 0x00, 0x81,
  0x47, 0x16, 0xb6, 0xa0, 0xc6, 0x2d, 0x7f, 0xbe, 0xb0, 0xc6, 0xa3, 0x1f,
  0x8b, 0x03, 0x7f, 0xda, 0xe4, 0x77, 0xcc, 0xce, 0x0e, 0x32, 0x16, 0xa4,
  0xb4, 0x37, 0x58, 0xd0, 0x12, 0x42, 0x04, 0x60, 0x49, 0xd0, 0x37, 0x49,
  0x29, 0x35, 0x7f, 0x74, 0x81, 0x3d, 0xce, 0x15, 0x5b, 0x1c, 0x7f, 0x59,
  0xef, 0x27, 0x05, 0xef, 0xc3, 0xd2, 0xda, 0x7d, 0xfb, 0xf4, 0xb8, 0x8b,
  0x17, 0x17, 0x2f, 0xd8, 0xdf, 0x19, 0x22, 0xa8, 0x2a, 0x14, 0xd8, 0x81,
  0xe0, 0xa6, 0xdc, 0xfd, 0xf6, 0x17, 0x32, 0x99, 0xc4, 0xb6, 0x92, 0x4a,
  0x60, 0x3f, 0xf7, 0xbf, 0xef, 0xaa, 0x7f, 0xd3, 0x1b, 0xea, 0x26, 0xe3,
  0x19, 0xcd, 0x01, 0x19, 0x33, 0xa8, 0xcf, 0x64, 0x6a, 0x59, 0x24, 0xf4,
  0x96, 0x3b, 0x35, 0x04, 0x0b, 0x2b, 0x2b, 0xe0, 0x81, 0x74, 0xfd, 0x20,
  0x9a, 0x1a, 0x0b, 0x9c, 0xdf, 0x1d, 0x7f, 0x1a, 0x2c, 0x12, 0x81, 0x5f,
  0x49, 0xa3, 0xe0, 0x3b, 0xfd, 0x7f, 0x21, 0xff, 0x28, 0x41, 0x3b, 0xd8,
  0xb7, 0x82, 0xc2, 0x15, 0x67, 0xed, 0x60, 0xb4, 0x33, 0xa6, 0x3a, 0x81,
  0x35, 0xc5, 0xab, 0xb2, 0xf5, 0xa3, 0xd2, 0x12, 0xd5, 0x1d, 0x02, 0x81,
  0x55, 0x1c, 0x5a, 0x10, 0x81, 0x71, 0xcb, 0xce, 0xdf, 0x2e, 0x2b, 0x81,
  0xbb, 0xb8, 0xcc, 0xf3, 0xa8, 0x66, 0x08, 0x83, 0x33, 0x7f, 0x31, 0xf7,
  0x02, 0x7f, 0x87, 0xd0, 0xc5, 0x7f, 0x3d, 0xdc, 0x09, 0x20, 0x37, 0x29,
  0xf7, 0xe0, 0x1a, 0xf5, 0x26, 0x7f, 0xe3, 0x59, 0xe0, 0x7f, 0x38, 0x18,
  0xc4, 0x6a, 0x06, 0xdf, 0x19, 0x7f, 0x9e, 0x6b, 0x7f, 0x18, 0x31, 0x2f,
  0x1c, 0x31, 0x56, 0x08, 0x9e, 0xc9, 0xac, 0x1a, 0x62, 0xfc, 0x36, 0x0c,
  0x00, 0x81, 0xfc, 0x2b, 0x90, 0xfb, 0x7f, 0x4d, 0x46, 0xfa, 0xac, 0xe5,
  0x09, 0xd7, 0xdd, 0xeb, 0x81, 0xee, 0xfc, 0xf3, 0xf0, 0x19, 0xf5, 0xd0,
  0x42, 0x05, 0x01, 0xf8, 0x28, 0x53, 0x08, 0x05, 0xd7, 0xec, 0x1c, 0x10,
  0xfb, 0x70, 0xc5, 0x2a, 0xef, 0xf0, 0xe6, 0x9f, 0x1a, 0x1b, 0x90, 0x7f,
  0x11, 0x20, 0xe6, 0xf7, 0x7f, 0x36, 0xb9, 0x0a, 0x1c, 0xea, 0xd6, 0xd4,
  0x3b, 0x08, 0xcd, 0xf5, 0x2b, 0x1c, 0xee, 0xec, 0xce, 0x4c, 0x12, 0xed,
  0xc7, 0x18, 0xd7, 0xcd, 0xf6, 0x10, 0xb1, 0x0f, 0xef, 0x2f, 0x99, 0x25,
  0x7f, 0x8f, 0x89, 0x62, 0x23, 0x0c, 0x62, 0x20, 0x28, 0x7f, 0xe6, 0x40,
  0xcf, 0x86, 0x02, 0xb1, 0xcf, 0x28, 0x95, 0x42, 0x37, 0x7f, 0xf7, 0x9f,
  0x1f, 0x20, 0xa8, 0x34, 0xce, 0x59, 0xc8, 0xed, 0x0b, 0xd8, 0x4d, 0xe3,
  0x16, 0xc2, 0x0b, 0xcd, 0x87, 0x2f, 0x99, 0xf0, 0x81, 0x36, 0xed, 0xc3,
  0xea, 0x84, 0x90, 0xbb, 0xfc, 0x57, 0xaf, 0x59, 0xb6, 0xcb, 0xff, 0xff,
  0x04, 0x00, 0x00, 0x00, 0x00, 0x24, 0x00, 0x00, 0x83, 0xec, 0x10, 0x34,
  0xeb, 0x11, 0xe9, 0x33, 0xf8, 0xf6, 0x23, 0xec, 0x03, 0xdc, 0x16, 0x3c,
  0x32, 0xf9, 0x05, 0x03, 0x38, 0xf9, 0xd8, 0xfc, 0xf6, 0xfa, 0xf4, 0x16,
  0x27, 0xcd, 0xe9, 0x1b, 0x02, 0xf5, 0xef, 0xda, 0x09, 0xb9, 0x67, 0xb8,
  0x2d, 0xf5, 0x1d, 0xc5, 0x24, 0xf7, 0x21, 0x24, 0x51, 0x2d, 0x1f, 0xce,
  0xfb, 0xec, 0xf5, 0x17, 0x21, 0xd1, 0xef, 0xe3, 0xbc, 0x2f, 0xf0, 0xbc,
  0x8e, 0xce, 0xee, 0x79, 0xf0, 0x09, 0xe8, 0x25, 0xeb, 0x33, 0x5c, 0xd5,
  0x39, 0xe2, 0xfe, 0xf6, 0x26, 0xe4, 0x0e, 0xe8, 0xf8, 0x18, 0x17, 0x44,
  0xf9, 0x11, 0xc3, 0xfa, 0x57, 0xf3, 0xe0, 0x26, 0x03, 0xdf, 0xe5, 0xf9,
  0xe9, 0xe0, 0x33, 0xcc, 0x1a, 0xfc, 0x0b, 0xeb, 0x0f, 0xf5, 0xb0, 0x1b,
  0xfc, 0xfa, 0x2d, 0xe8, 0x07, 0x0c, 0xec, 0x0e, 0x18, 0x0c, 0xf1, 0xec,
  0x2b, 0x0a, 0xe5, 0xda, 0x8f, 0x3e, 0x01, 0x79, 0x20, 0xda, 0x21, 0x3c,
  0xf5, 0x0d, 0x2a, 0xf1, 0x13, 0x2e, 0xe8, 0x35, 0xfb, 0x1a, 0xed, 0x1e,
  0x15, 0xf6, 0x5f, 0x28, 0xc8, 0xdd, 0xcc, 0x1f, 0x41, 0xe6, 0xbb, 0x4f,
  0xec, 0xea, 0xdf, 0xe9, 0xf9, 0xe8, 0x07, 0xc5, 0x0c, 0xf1, 0xe9, 0x29,
  0x0c, 0xcc, 0xee, 0xe7, 0x7f, 0x2b, 0x16, 0x21, 0x14, 0x12, 0xf1, 0xdf,
  0x3b, 0x0a, 0x01, 0x1e, 0x20, 0x2e, 0x1e, 0x16, 0xa9, 0x0b, 0x02, 0xf3,
  0xd6, 0x08, 0xe0, 0xf6, 0x0d, 0xed, 0x00, 0xfa, 0xf6, 0x27, 0x06, 0x29,
  0x05, 0x20, 0x12, 0x14, 0x0b, 0x2a, 0xd6, 0xee, 0xca, 0x26, 0xe3, 0xfc,
  0x3b, 0x1c, 0xf9, 0x13, 0x26, 0x05, 0x03, 0x2c, 0x34, 0xee, 0x3a, 0x1f,
  0xec, 0xf4, 0x09, 0x14, 0x1a, 0x67, 0x31, 0xe6, 0x22, 0x3c, 0xf4, 0x1c,
  0xe8, 0xfd, 0xe1, 0xf4, 0x0b, 0xf0, 0xe0, 0xed, 0x4a, 0x39, 0x3f, 0xea,
  0xf3, 0xfc, 0xf4, 0x0d, 0xf1, 0x15, 0x05, 0xed, 0xe0, 0x10, 0x3c, 0xe8,
  0x25, 0x38, 0x05, 0xdd, 0x52, 0xf5, 0x07, 0xf4, 0xf5, 0x39, 0xfe, 0x11,
  0xaa, 0x2e, 0xe4, 0xf3, 0x40, 0xee, 0x00, 0x41, 0x1a, 0xfd, 0xd4, 0x15,
  0xe7, 0xfb, 0x18, 0x33, 0x15, 0x01, 0x05, 0x2f, 0x38, 0x5e, 0xf9, 0xe6,
  0x3f, 0xf1, 0x21, 0x00, 0x41, 0x05, 0x18, 0xdd, 0x1f, 0x04, 0xdf, 0xfe,
  0x3c, 0x03, 0x23, 0xf2, 0xbe, 0x21, 0xe4, 0x15, 0x3f, 0xf3, 0x47, 0xf0,
  0xf0, 0x0a, 0x05, 0xdc, 0xe3, 0xe1, 0xf4, 0x38, 0x43, 0x2c, 0xe8, 0xc7,
  0xf5, 0x41, 0xe5, 0x21, 0xae, 0x23, 0xd2, 0xcf, 0x1f, 0xe2, 0xfd, 0x51,
  0xbf, 0xe8, 0xbc, 0xf6, 0x0f, 0x18, 0xed, 0xd8, 0x06, 0xef, 0xe8, 0x3a,
  0x1c, 0x40, 0x03, 0xde, 0x55, 0xff, 0xf8, 0x2c, 0x29, 0xfa, 0x0e, 0xd5,
  0x55, 0x27, 0xdb, 0x1e, 0x29, 0x47, 0x22, 0x02, 0xb8, 0x0a, 0x18, 0x11,
  0x3c, 0x26, 0xea, 0xd5, 0xec, 0xf1, 0xcb, 0xff, 0xde, 0xf1, 0xda, 0x1e,
  0xc4, 0x1c, 0x21, 0xe2, 0x01, 0x5c, 0xfa, 0xcc, 0xf9, 0x26, 0x16, 0xff,
  0x3e, 0x33, 0x10, 0xde, 0x15, 0xe0, 0x16, 0x24, 0x1f, 0x02, 0xe4, 0xc9,
  0xf0, 0xec, 0xef, 0xff, 0xee, 0xff, 0x02, 0xfd, 0xa2, 0x1f, 0x01, 0x4a,
  0xd2, 0xf0, 0xd1, 0xfa, 0x39, 0x0e, 0xef, 0x03, 0xc8, 0x46, 0x55, 0x01,
  0x06, 0x0f, 0x1c, 0x1c, 0xea, 0x16, 0x06, 0xc7, 0xda, 0xdd, 0xf6, 0xd5,
  0x1d, 0x24, 0x09, 0xd1, 0xeb, 0x23, 0x11, 0xdb, 0x0b, 0xff, 0xf1, 0xe7,
  0xcf, 0x1a, 0x10, 0x17, 0x55, 0x27, 0x0b, 0x24, 0xf9, 0xe0, 0xe7, 0x34,
  0xce, 0x07, 0xf4, 0xe9, 0x1b, 0x15, 0x0d, 0x51, 0x10, 0xf8, 0xd7, 0x0e,
  0x0c, 0xeb, 0x0f, 0x07, 0x5d, 0x13, 0xeb, 0x05, 0x38, 0x13, 0xe1, 0xc3,
  0xd8, 0x1b, 0xfb, 0x06, 0xdc, 0x21, 0xe9, 0x02, 0xf5, 0x14, 0x3b, 0xc9,
  0xe2, 0x10, 0xbf, 0xc8, 0xb2, 0xe2, 0xd6, 0xc4, 0x34, 0x2e, 0x0d, 0xbc,
  0xfd, 0x1f, 0xdc, 0x0e, 0xc6, 0x2f, 0x05, 0x07, 0x2c, 0x22, 0xe6, 0x15,
  0x95, 0xf6, 0xe8, 0x3b, 0x0f, 0xf9, 0x26, 0xf7, 0x24, 0x03, 0x01, 0x2f,
  0x10, 0xd9, 0xdd, 0x05, 0x2b, 0xb9, 0xe7, 0x5d, 0x11, 0x06, 0x0a, 0xc7,
  0x29, 0x1e, 0xe0, 0xea, 0xf1, 0x52, 0xe5, 0x02, 0xe6, 0xf0, 0x1e, 0x18,
  0x55, 0xe1, 0x15, 0x1e, 0xd8, 0x11, 0xe4, 0x08, 0xff, 0xfd, 0xd6, 0xf5,
  0xfc, 0xf3, 0x81, 0xf9, 0xc6, 0x09, 0x1b, 0xed, 0xf6, 0xf2, 0x01, 0x12,
  0x0d, 0xd5, 0xba, 0x46, 0xc8, 0x12, 0x11, 0xd9, 0xf5, 0xbc, 0x57, 0xf2,
  0x04, 0xf2, 0x0d, 0xdd, 0xee, 0xe5, 0x30, 0x28, 0xcf, 0xdd, 0x11, 0xf2,
  0x13, 0xf8, 0x43, 0x0e, 0x0d, 0xdb, 0x12, 0xc4, 0xfd, 0xf1, 0xe3, 0x03,
  0xfc, 0xd9, 0x0f, 0xfb, 0x56, 0xec, 0x18, 0x14, 0xe0, 0x10, 0x07, 0xf0,
  0x2f, 0xf2, 0xf5, 0xeb, 0xf4, 0xbe, 0x9a, 0x10, 0xf7, 0x25, 0x0d, 0xf3,
  0x15, 0xe9, 0xe7, 0xf9, 0xfd, 0x03, 0xc3, 0x4f, 0xcb, 0x25, 0x04, 0xe3,
  0xf1, 0xcf, 0x01, 0x2f, 0xff, 0xe2, 0xfc, 0xcb, 0xf1, 0x01, 0x1b, 0x2d,
  0x29, 0xc2, 0x29, 0xcd, 0x16, 0xef, 0x2f, 0x1b, 0x09, 0xf0, 0x02, 0xdd,
  0x0e, 0xf3, 0xf7, 0x15, 0x11, 0xe2, 0x14, 0x11, 0x3e, 0xed, 0x31, 0xf0,
  0xf1, 0x11, 0xe2, 0x12, 0x25, 0x02, 0x00, 0xed, 0xd9, 0xc1, 0xce, 0xda,
  0xe5, 0xe6, 0x39, 0xe9, 0x4d, 0xff, 0xe9, 0xf6, 0x04, 0x0d, 0xcc, 0x42,
  0x00, 0x0a, 0xf6, 0xf8, 0x14, 0xa3, 0xe6, 0xfc, 0x04, 0xf8, 0xf5, 0xe1,
  0xe6, 0x26, 0xf1, 0x1c, 0x24, 0xda, 0xfd, 0xd8, 0xd6, 0xfd, 0x22, 0x1d,
  0x19, 0xf5, 0x01, 0xda, 0x08, 0xfb, 0x21, 0x10, 0x05, 0x0c, 0xfc, 0xf6,
  0x18, 0xfe, 0xfd, 0xdd, 0x0a, 0xff, 0xfb, 0x06, 0x00, 0x00, 0xfe, 0x15,
  0xdf, 0xef, 0xbd, 0x03, 0xf5, 0x27, 0x11, 0xf9, 0xc7, 0xfd, 0x09, 0xfd,
  0x0f, 0xf7, 0xf2, 0x30, 0xe7, 0xfd, 0xe9, 0x02, 0xdc, 0xd7, 0x1d, 0xda,
  0xf6, 0x06, 0xe6, 0xd2, 0x04, 0xd5, 0xdf, 0xf3, 0xe4, 0xfe, 0x25, 0xf0,
  0xf3, 0x05, 0x1e, 0x0a, 0x14, 0xf2, 0x1f, 0xd5, 0x11, 0xe6, 0xe4, 0x11,
  0xff, 0x01, 0xf3, 0xf2, 0x22, 0x17, 0xf6, 0xf3, 0x06, 0x05, 0x18, 0xf4,
  0x18, 0xec, 0xee, 0xfe, 0x01, 0xfb, 0xd5, 0xfd, 0x13, 0x0f, 0x1c, 0x0c,
  0xb9, 0x0e, 0xfa, 0x12, 0x05, 0x15, 0xb8, 0x2d, 0xf5, 0x02, 0x02, 0x16,
  0xfb, 0xb5, 0x10, 0x04, 0xf3, 0x00, 0xe6, 0xd6, 0x04, 0xe9, 0xce, 0xfe,
  0xfa, 0xdf, 0x10, 0x09, 0x03, 0x02, 0x39, 0xfb, 0x27, 0xfd, 0x19, 0xee,
  0xf6, 0xe5, 0xe5, 0x0d, 0x07, 0xfb, 0xeb, 0xfd, 0x19, 0x02, 0xea, 0x02,
  0x1f, 0x1a, 0xec, 0x0c, 0xf3, 0x08, 0x0d, 0xfe, 0x0a, 0x09, 0xce, 0x0e,
  0xf9, 0xdf, 0x20, 0x07, 0xc5, 0x04, 0x02, 0x24, 0xf3, 0x09, 0x97, 0x41,
  0x0d, 0xf9, 0xe3, 0x14, 0x00, 0xaf, 0xe6, 0x02, 0x0e, 0x0a, 0x02, 0xec,
  0xf4, 0xf9, 0xed, 0xf3, 0x19, 0xec, 0x01, 0x04, 0xe8, 0x17, 0x29, 0x24,
  0x18, 0x08, 0xf4, 0xf4, 0xf2, 0x05, 0x08, 0x23, 0x04, 0x12, 0x09, 0x0f,
  0xfe, 0xf6, 0xeb, 0x02, 0xfd, 0x1c, 0x06, 0xfa, 0xde, 0xfc, 0x02, 0x0e,
  0x19, 0x09, 0xee, 0x04, 0x35, 0x2c, 0x03, 0xf7, 0x38, 0x0e, 0x18, 0xd9,
  0x10, 0x04, 0x08, 0x14, 0x1a, 0x0e, 0xd7, 0x00, 0xac, 0xed, 0xf7, 0xf0,
  0xfe, 0x09, 0xe3, 0xf3, 0x00, 0x28, 0x02, 0x05, 0x04, 0x04, 0x38, 0x0a,
  0xf8, 0x0a, 0xe1, 0xf5, 0x0f, 0x11, 0x1e, 0xd3, 0x11, 0xe5, 0x06, 0x11,
  0x00, 0x19, 0x00, 0xff, 0x07, 0x15, 0xff, 0xf7, 0x06, 0xef, 0x11, 0xdf,
  0xf8, 0x1d, 0x03, 0x03, 0x2e, 0x0a, 0xf7, 0xee, 0x26, 0x0b, 0xf9, 0xfb,
  0x25, 0x07, 0x06, 0xdb, 0xed, 0x02, 0xf6, 0x2f, 0x17, 0x01, 0xf6, 0xf9,
  0xf3, 0xf7, 0xea, 0xe5, 0xfa, 0xf8, 0xff, 0x06, 0xfa, 0x1d, 0x15, 0xf6,
  0x0f, 0xff, 0x32, 0xf9, 0xfb, 0x12, 0xdd, 0xe5, 0x1f, 0x0b, 0x17, 0xfb,
  0x3f, 0xf6, 0xe5, 0x05, 0x08, 0x0b, 0xfd, 0xfd, 0xef, 0x07, 0xda, 0xfe,
  0x0f, 0xde, 0x07, 0x07, 0x01, 0xf3, 0x0f, 0x00, 0x2d, 0xfd, 0xf0, 0x00,
  0xde, 0xdb, 0x0b, 0xfd, 0x26, 0x0a, 0x01, 0xf9, 0xe7, 0xf0, 0xfe, 0x2c,
  0x27, 0xff, 0xe4, 0x01, 0x0c, 0x10, 0xf5, 0xf2, 0x1b, 0xfa, 0x02, 0x19,
  0x13, 0x13, 0x2a, 0xdb, 0xfd, 0xf3, 0x0e, 0x15, 0xe6, 0xf8, 0xf5, 0xf5,
  0x28, 0xe8, 0xf8, 0x05, 0x1e, 0x19, 0x0e, 0x13, 0x22, 0x00, 0xf4, 0x2c,
  0x08, 0xc4, 0x08, 0xf6, 0x12, 0xe7, 0x28, 0x02, 0xef, 0xec, 0x12, 0xfe,
  0xf2, 0xaf, 0xb9, 0xe2, 0xee, 0xfc, 0x7d, 0xd3, 0x9b, 0xfa, 0xcb, 0xde,
  0xfb, 0xea, 0xce, 0xf5, 0x07, 0x02, 0xe5, 0xfd, 0xc4, 0xec, 0x00, 0x8d,
  0x03, 0x01, 0xb2, 0x3e, 0x20, 0xfe, 0xff, 0x3f, 0x10, 0x09, 0x22, 0x07,
  0x04, 0x0d, 0x17, 0xd4, 0x38, 0xfe, 0x11, 0x0c, 0x1e, 0x44, 0x41, 0x7f,
  0x1e, 0xf5, 0xfd, 0x29, 0xfb, 0xe8, 0xfe, 0xf7, 0x13, 0xfa, 0x0c, 0xef,
  0x09, 0xe8, 0xfc, 0x24, 0x11, 0xee, 0xd0, 0x06, 0xee, 0x2e, 0x5a, 0xcc,
  0xd2, 0xeb, 0xe2, 0xf8, 0x18, 0x15, 0xd6, 0xf3, 0x0f, 0xfd, 0xef, 0xe8,
  0x06, 0xea, 0xf8, 0xca, 0x1e, 0xeb, 0xd3, 0x3e, 0x11, 0xe7, 0xe6, 0x31,
  0x3d, 0x34, 0xfe, 0x24, 0xd0, 0xfb, 0xe6, 0xdf, 0x52, 0xe6, 0xf6, 0x05,
  0x35, 0x13, 0x07, 0x63, 0xcf, 0x16, 0x16, 0x0f, 0xe7, 0x0f, 0xcb, 0x1b,
  0x18, 0xe6, 0xf2, 0x50, 0x0c, 0x1d, 0xfa, 0x36, 0x2b, 0x14, 0xeb, 0x18,
  0xf3, 0x05, 0x14, 0xdc, 0xe3, 0x0a, 0x19, 0x0d, 0x21, 0x0e, 0x04, 0xd1,
  0x15, 0x09, 0xe7, 0xee, 0xde, 0xe0, 0xe3, 0xd6, 0x23, 0x0d, 0x31, 0x07,
  0x03, 0xbe, 0x0b, 0x13, 0x26, 0x36, 0xb5, 0xd8, 0x3e, 0xf2, 0xde, 0xe1,
  0x69, 0xee, 0xeb, 0x0e, 0x19, 0x07, 0x2a, 0x3c, 0xdc, 0xfe, 0xe7, 0x0c,
  0xf3, 0x04, 0x1b, 0xe7, 0x06, 0x26, 0xe1, 0xd4, 0x2e, 0xdd, 0x25, 0xff,
  0x25, 0xe7, 0xab, 0xf1, 0xec, 0x04, 0x4c, 0x0b, 0xc3, 0x0b, 0xcd, 0xe6,
  0x26, 0xf1, 0xe7, 0x0d, 0xe0, 0xd2, 0xc9, 0x19, 0xcb, 0x4d, 0x06, 0xb8,
  0x20, 0xff, 0xd3, 0x09, 0x24, 0xbe, 0x07, 0xe3, 0x46, 0xef, 0xda, 0x04,
  0xfe, 0x0d, 0x2f, 0xc9, 0x2e, 0x41, 0x09, 0x08, 0xcf, 0x35, 0xd2, 0x57,
  0x11, 0xfd, 0xdd, 0xfd, 0x05, 0x17, 0x06, 0xf2, 0x0e, 0xf3, 0xf0, 0x0c,
  0x04, 0x17, 0x19, 0x11, 0x36, 0x15, 0xc4, 0xee, 0x05, 0x4e, 0x0d, 0xe4,
  0xf1, 0x0d, 0xf7, 0xf6, 0x0b, 0x03, 0xf4, 0xfe, 0xef, 0xee, 0xe8, 0xfe,
  0xf9, 0x38, 0x04, 0x15, 0x18, 0xfb, 0xd6, 0xda, 0x1c, 0xba, 0xed, 0xd9,
  0x75, 0x0c, 0x17, 0x0d, 0x2e, 0x18, 0x16, 0xec, 0x17, 0x14, 0x04, 0xfe,
  0x03, 0xf4, 0xe7, 0x12, 0xf8, 0x18, 0x19, 0x1c, 0x0f, 0x01, 0xca, 0x25,
  0x08, 0xf9, 0xf2, 0x13, 0x03, 0x32, 0x05, 0x0f, 0x22, 0x20, 0x03, 0x07,
  0x41, 0x05, 0xd5, 0x04, 0x2f, 0xf2, 0x23, 0xf8, 0x03, 0xe2, 0x1f, 0xe4,
  0xfa, 0xe1, 0x18, 0xf5, 0xf7, 0xf6, 0x1c, 0x27, 0xeb, 0xee, 0x0d, 0xc9,
  0xda, 0xd2, 0x25, 0xf3, 0x30, 0x14, 0x17, 0xf6, 0x3f, 0xfc, 0xf6, 0x0d,
  0x35, 0x13, 0xf0, 0x0c, 0xe4, 0xe1, 0xde, 0xdf, 0xda, 0xfc, 0xd8, 0x14,
  0x03, 0x4f, 0x50, 0x04, 0xee, 0x3e, 0xe0, 0xee, 0xef, 0x23, 0x23, 0xce,
  0x4e, 0x1b, 0xcc, 0xf9, 0xfd, 0xeb, 0x28, 0x54, 0xcd, 0x50, 0x0c, 0x24,
  0x0f, 0x10, 0xc7, 0x15, 0xf4, 0xb8, 0xaf, 0x28, 0x03, 0xf7, 0x13, 0xf4,
  0x09, 0x1a, 0xcc, 0x0a, 0x17, 0xee, 0x13, 0xc6, 0x0a, 0xdc, 0xf4, 0x06,
  0x24, 0x1a, 0x1b, 0xca, 0x12, 0x32, 0xf2, 0xde, 0xae, 0x08, 0xa3, 0x0e,
  0x15, 0x2e, 0x00, 0x26, 0xed, 0x29, 0xfe, 0xfb, 0xef, 0xf3, 0xe6, 0x1b,
  0x04, 0x26, 0x07, 0xf6, 0x2a, 0x0c, 0xd5, 0x1c, 0x0c, 0x46, 0x19, 0x2a,
  0xf1, 0x14, 0x2c, 0x12, 0x0f, 0xfe, 0xd6, 0x13, 0xd2, 0xda, 0x2f, 0xfd,
  0x22, 0xde, 0x01, 0xfe, 0xef, 0x07, 0xee, 0xf7, 0x03, 0x00, 0x0a, 0xff,
  0x53, 0xf5, 0x02, 0xef, 0x42, 0xfb, 0x0b, 0x14, 0x0a, 0x11, 0xf9, 0xf4,
  0x0a, 0xe0, 0xd5, 0x10, 0x06, 0x07, 0x19, 0x1d, 0xe8, 0xe6, 0xda, 0xed,
  0xf2, 0x10, 0x02, 0xd9, 0x07, 0xe4, 0xfe, 0x09, 0xc5, 0xcd, 0x0e, 0xed,
  0xe2, 0x14, 0xf4, 0x4a, 0x39, 0xef, 0x10, 0x0b, 0xfe, 0x02, 0xdb, 0xfe,
  0xe9, 0xe7, 0x7b, 0xf1, 0xfe, 0xd0, 0x50, 0xfe, 0x82, 0xfe, 0xf8, 0xd8,
  0xe1, 0x24, 0x2e, 0x19, 0x32, 0x1b, 0x05, 0xe8, 0xba, 0xf7, 0xdf, 0x26,
  0x10, 0x17, 0x04, 0x13, 0x38, 0xd5, 0xf3, 0x13, 0x21, 0x19, 0xf0, 0xed,
  0xd4, 0xea, 0xd2, 0x17, 0x14, 0x14, 0xeb, 0x1d, 0x0e, 0x25, 0x05, 0xee,
  0xfb, 0x17, 0xef, 0xd7, 0xee, 0xcb, 0xe6, 0xc2, 0x2e, 0x0d, 0xf2, 0xd2,
  0x02, 0xeb, 0xf9, 0x1d, 0xf0, 0x0f, 0xcc, 0xd6, 0xce, 0x0a, 0xd3, 0xfb,
  0x34, 0xff, 0xfd, 0xce, 0xe9, 0x41, 0xce, 0x04, 0xdc, 0xff, 0xdb, 0xd8,
  0xf3, 0x02, 0x08, 0xca, 0xff, 0x08, 0xe8, 0x08, 0xbc, 0x3a, 0xc5, 0xf7,
  0xd3, 0x2b, 0x02, 0x21, 0xe9, 0xf6, 0xdc, 0xf6, 0x11, 0xf3, 0x30, 0x01,
  0x1c, 0x3e, 0xf8, 0xe8, 0xed, 0xf8, 0xf6, 0xd9, 0x0d, 0x22, 0x19, 0xdb,
  0x3c, 0x10, 0x0c, 0x00, 0x2d, 0x10, 0xeb, 0x14, 0x1a, 0x01, 0xe8, 0x09,
  0x0e, 0x26, 0xf1, 0x01, 0x09, 0x12, 0xe1, 0xf4, 0xec, 0x63, 0xea, 0xd8,
  0x17, 0x12, 0x47, 0xe9, 0xed, 0xfe, 0x0e, 0x35, 0x09, 0x0c, 0x0f, 0x18,
  0x07, 0x05, 0x99, 0x15, 0xd7, 0xf8, 0xf8, 0x35, 0x1a, 0xe9, 0x06, 0xe3,
  0x24, 0xfa, 0xfc, 0x49, 0x24, 0xde, 0x32, 0xed, 0x40, 0x01, 0x00, 0xb6,
  0x46, 0x04, 0x29, 0x3e, 0x2d, 0x06, 0xf0, 0x1a, 0x1b, 0xef, 0xe3, 0x19,
  0x1e, 0xc5, 0x10, 0xe0, 0x03, 0xd5, 0x28, 0xe8, 0xf2, 0x0b, 0xb1, 0xf6,
  0x16, 0x47, 0x03, 0xe5, 0x04, 0x1d, 0x35, 0xd2, 0xf2, 0xee, 0xfb, 0x14,
  0x1d, 0x12, 0x14, 0x0e, 0xee, 0x4a, 0x47, 0x5d, 0x03, 0x0a, 0x05, 0x19,
  0x03, 0x16, 0xc4, 0x24, 0x29, 0xf3, 0xe5, 0xf6, 0xeb, 0x55, 0x17, 0xf3,
  0x23, 0xe7, 0x1f, 0x0e, 0x17, 0xdc, 0xf3, 0xc4, 0x0b, 0x13, 0x08, 0x20,
  0x03, 0xf9, 0xe9, 0x08, 0x09, 0x10, 0xb6, 0x18, 0xf5, 0x09, 0xe8, 0x2c,
  0x3c, 0xf5, 0xf2, 0xde, 0xf6, 0x05, 0xe5, 0xf6, 0xe8, 0x35, 0xd3, 0x2b,
  0x0b, 0xff, 0xfc, 0xd0, 0xf2, 0x10, 0x01, 0xf8, 0xeb, 0x08, 0xe5, 0x0e,
  0xbe, 0x31, 0xf5, 0x2b, 0x08, 0x0c, 0xf2, 0xf6, 0x10, 0xf3, 0xef, 0xde,
  0x0a, 0x07, 0x23, 0x0e, 0xe3, 0xfb, 0x0c, 0x10, 0xdb, 0x34, 0x23, 0xfa,
  0x29, 0x02, 0xe9, 0x25, 0x1c, 0x02, 0xd8, 0x22, 0x39, 0xe2, 0xf1, 0x14,
  0x05, 0xfe, 0x52, 0x11, 0x15, 0xf6, 0xd7, 0x2b, 0x19, 0xfe, 0xf3, 0xf2,
  0x1d, 0x1a, 0x21, 0xf0, 0xee, 0xef, 0x1f, 0x1d, 0x07, 0x1d, 0x07, 0x07,
  0x26, 0x15, 0xea, 0x05, 0xee, 0x04, 0xcb, 0x2c, 0x31, 0xf4, 0x3e, 0x01,
  0x2a, 0xe4, 0xf3, 0xfe, 0x1f, 0xeb, 0x6a, 0x02, 0xff, 0xf0, 0x06, 0xeb,
  0xfe, 0xf8, 0x3f, 0x23, 0x13, 0x0f, 0xea, 0x16, 0x31, 0xff, 0xb1, 0x3d,
  0x2a, 0xca, 0xf7, 0xee, 0xc2, 0xae, 0x12, 0x18, 0x00, 0x0b, 0xe0, 0x2c,
  0xf9, 0xe3, 0x07, 0xeb, 0xf7, 0x17, 0x01, 0xe8, 0x27, 0xe9, 0x34, 0x25,
  0x36, 0x2e, 0x1a, 0x13, 0x19, 0x1a, 0x48, 0x2b, 0xeb, 0x05, 0x2c, 0x29,
  0xda, 0x1a, 0xcc, 0x08, 0x46, 0x26, 0xdb, 0x33, 0xcd, 0xcf, 0x4e, 0x17,
  0xc3, 0x81, 0x2b, 0x1d, 0x20, 0x07, 0x00, 0xd4, 0xfa, 0x63, 0x1f, 0xec,
  0x13, 0xf4, 0xc7, 0x2e, 0x3d, 0x10, 0xc0, 0x2e, 0x0e, 0xf2, 0x12, 0x31,
  0x40, 0xf1, 0xe1, 0xda, 0xd3, 0xd5, 0xfa, 0x10, 0x11, 0x3a, 0xf8, 0x4b,
  0xd9, 0xea, 0xe0, 0x27, 0xde, 0x06, 0x1f, 0x28, 0xed, 0x02, 0x1c, 0x0b,
  0xaf, 0x24, 0x01, 0x2e, 0xec, 0x2c, 0xeb, 0xf5, 0xfd, 0x06, 0xe6, 0x13,
  0x18, 0xcb, 0x49, 0xff, 0xd2, 0xe9, 0x1c, 0x08, 0x14, 0x5f, 0x07, 0x20,
  0xfe, 0x58, 0x07, 0xd9, 0x21, 0x13, 0xe9, 0x31, 0x23, 0xde, 0xcc, 0x1c,
  0xd9, 0x0b, 0x2f, 0x13, 0x0d, 0x05, 0xf4, 0xf8, 0x05, 0xdb, 0xfd, 0x09,
  0x04, 0x23, 0xed, 0x1b, 0xf7, 0x00, 0x08, 0xfd, 0xe3, 0x0e, 0xf4, 0x24,
  0x04, 0x05, 0x27, 0xfc, 0xde, 0xe7, 0xfd, 0x18, 0x13, 0x0a, 0x69, 0xf4,
  0x08, 0xf4, 0xef, 0xb8, 0xea, 0xf5, 0x22, 0xf3, 0x23, 0x01, 0xff, 0xfc,
  0xf2, 0x11, 0x32, 0x30, 0xc2, 0x34, 0xec, 0xf5, 0x1c, 0xeb, 0xbb, 0x59,
  0x1a, 0xc1, 0xf8, 0x1d, 0x95, 0xf4, 0x26, 0x1b, 0x02, 0x11, 0xdc, 0x3a,
  0xe9, 0xf8, 0x13, 0xf3, 0x0d, 0xf1, 0x02, 0xfa, 0x22, 0xec, 0xff, 0xf8,
  0x09, 0x0f, 0xfc, 0xf5, 0x0a, 0x26, 0x17, 0x12, 0xcf, 0xca, 0xec, 0x1a,
  0xf0, 0x04, 0x04, 0x16, 0x15, 0x22, 0xbb, 0xd8, 0xdf, 0xfa, 0x16, 0xb2,
  0x4c, 0x0b, 0xf4, 0x0e, 0xf4, 0xab, 0x6d, 0x23, 0x04, 0x15, 0xef, 0x2a,
  0x15, 0xfe, 0xbf, 0x02, 0xca, 0xe6, 0xe6, 0x0c, 0x19, 0x3d, 0x06, 0xcd,
  0x09, 0xef, 0xda, 0xfb, 0xfa, 0x1c, 0x2b, 0xf1, 0xbb, 0xd0, 0xd3, 0x2f,
  0xe9, 0xff, 0x2d, 0xf9, 0x73, 0xea, 0x1e, 0x09, 0xde, 0xf6, 0xf8, 0x50,
  0xfe, 0xcc, 0x10, 0x16, 0xe3, 0x12, 0x0b, 0x0b, 0x15, 0xd3, 0xf5, 0x02,
  0x0d, 0x04, 0x08, 0x0e, 0x17, 0xfb, 0xf2, 0x07, 0x1e, 0x46, 0x35, 0x05,
  0xee, 0x01, 0x06, 0xef, 0x10, 0x03, 0x02, 0xfb, 0xe1, 0xff, 0xf7, 0x08,
  0x10, 0x19, 0xce, 0xfd, 0xf7, 0xf8, 0x1f, 0xd5, 0x06, 0x20, 0x24, 0x20,
  0xda, 0xf3, 0x21, 0x1e, 0xf8, 0xf4, 0xf3, 0x14, 0x34, 0xfa, 0x20, 0x04,
  0xe1, 0xd5, 0x0f, 0x1c, 0xe3, 0xa6, 0x05, 0xf7, 0xc0, 0xec, 0x07, 0x22,
  0x3c, 0xb4, 0x63, 0x3a, 0x4b, 0x0b, 0x1f, 0xc1, 0x13, 0xc0, 0x14, 0xee,
  0x41, 0xae, 0xfc, 0xed, 0x15, 0xdd, 0x39, 0xf2, 0x1e, 0x02, 0x23, 0xdc,
  0x5f, 0x2a, 0x20, 0xdb, 0x05, 0xd5, 0xb0, 0x0f, 0xfc, 0xf9, 0x01, 0xd7,
  0xed, 0x47, 0x3b, 0x14, 0x4d, 0xea, 0x2e, 0x9e, 0xdf, 0x03, 0xcc, 0x7f,
  0x2d, 0xb4, 0x43, 0xe7, 0x5c, 0xa3, 0x3f, 0x02, 0xf7, 0x0a, 0xf2, 0x16,
  0x19, 0x17, 0x1d, 0xeb, 0x0c, 0x18, 0xdc, 0xee, 0xcb, 0xe4, 0xfd, 0xcd,
  0x35, 0x08, 0xe8, 0xee, 0xd6, 0xb2, 0x14, 0x0e, 0xae, 0x1e, 0xf3, 0xfb,
  0x1a, 0x03, 0xc4, 0xea, 0xd2, 0xf8, 0xed, 0x23, 0x1b, 0x07, 0xfa, 0xdc,
  0x03, 0x14, 0x01, 0xe8, 0x14, 0xce, 0xfa, 0xf0, 0x05, 0xd6, 0xda, 0x36,
  0xf7, 0xfc, 0x47, 0xe9, 0x32, 0x0a, 0x01, 0x08, 0x11, 0x09, 0xfb, 0x07,
  0x02, 0x03, 0x15, 0x14, 0x47, 0xf4, 0x1c, 0x0a, 0xf5, 0x19, 0x02, 0x0b,
  0xef, 0xf6, 0x0b, 0x09, 0x2a, 0x1f, 0xdc, 0xfc, 0xf9, 0x1b, 0x0d, 0xf2,
  0x8c, 0x06, 0xe2, 0xea, 0x18, 0xfe, 0x06, 0x14, 0xe4, 0xff, 0x02, 0x0b,
  0xfc, 0xcc, 0x26, 0xd3, 0x04, 0xf2, 0x11, 0x18, 0x0d, 0xee, 0x10, 0x16,
  0xef, 0xd4, 0xe9, 0x1b, 0x1b, 0x00, 0x00, 0xd9, 0x2f, 0xfd, 0x08, 0xe7,
  0xfd, 0xfa, 0x24, 0x03, 0xf5, 0xdb, 0x20, 0x05, 0x0a, 0xeb, 0x28, 0x40,
  0xec, 0xe4, 0x29, 0xd8, 0x21, 0x13, 0x0d, 0xda, 0xf9, 0xcf, 0x06, 0x1e,
  0xf9, 0xe3, 0x08, 0xf3, 0xc4, 0xe5, 0x14, 0xd2, 0x1a, 0xd0, 0xf4, 0x2f,
  0x2c, 0x07, 0x09, 0xe2, 0x1b, 0xe0, 0xf9, 0xce, 0xf1, 0xdf, 0xfe, 0xe3,
  0x01, 0x0a, 0x40, 0x27, 0x48, 0xb7, 0x03, 0xd5, 0x00, 0xf1, 0xd1, 0x31,
  0x0c, 0xda, 0x3a, 0xe9, 0x4b, 0xb1, 0x04, 0x07, 0xfa, 0x2e, 0xf2, 0x1e,
  0x05, 0x08, 0xfe, 0xf3, 0xff, 0xfc, 0xe4, 0x14, 0x0a, 0xf6, 0xf0, 0xd9,
  0x10, 0x1c, 0xb9, 0xf8, 0x06, 0xcd, 0xf7, 0xf7, 0xfd, 0x0b, 0x10, 0x01,
  0x1a, 0x12, 0x10, 0xeb, 0xe5, 0xef, 0xfb, 0xfb, 0x24, 0x20, 0xfc, 0xe9,
  0x15, 0x0a, 0x14, 0x04, 0xeb, 0x06, 0x0e, 0xee, 0x07, 0xdd, 0xff, 0x0f,
  0xfe, 0xfa, 0x45, 0xd2, 0x0d, 0x09, 0xe9, 0xf8, 0xeb, 0x31, 0x12, 0xfa,
  0x03, 0x09, 0xfd, 0x1c, 0x30, 0xfd, 0xf8, 0xe7, 0xda, 0xf8, 0xfb, 0xf7,
  0xf6, 0x1b, 0xd9, 0x24, 0x1c, 0x21, 0xe6, 0xf4, 0x09, 0xfc, 0x07, 0x09,
  0xea, 0x04, 0xe8, 0x10, 0x35, 0x1a, 0x0e, 0x0c, 0xe9, 0x03, 0x19, 0xf7,
  0x0a, 0x03, 0x38, 0xf3, 0xf4, 0x0d, 0x0c, 0xf5, 0x05, 0xfc, 0x00, 0xfe,
  0xf2, 0xfe, 0xf8, 0xea, 0x24, 0xfb, 0x33, 0xda, 0x16, 0x02, 0xea, 0xdf,
  0xec, 0x27, 0x0e, 0x04, 0xf6, 0x05, 0x0c, 0x01, 0xfd, 0xe8, 0x12, 0x28,
  0xd2, 0xd4, 0x09, 0x85, 0xfc, 0x11, 0xcf, 0x0c, 0xe3, 0xd4, 0xf0, 0x16,
  0xf5, 0xe6, 0xfd, 0xef, 0xf1, 0xf7, 0x02, 0x24, 0x07, 0xfa, 0x0b, 0x01,
  0x01, 0x18, 0x00, 0xd6, 0x21, 0x03, 0x10, 0x04, 0xd0, 0xf7, 0x06, 0xe0,
  0xe8, 0x0e, 0x17, 0x02, 0x27, 0xbe, 0x08, 0xf6, 0xd7, 0xfc, 0x26, 0x0f,
  0x0b, 0xe3, 0x1a, 0xc7, 0x2f, 0xc7, 0xef, 0x11, 0xed, 0xe7, 0x0d, 0x0d,
  0x0d, 0x0a, 0xf5, 0xd2, 0xf7, 0xf1, 0x1b, 0xde, 0x06, 0x15, 0xea, 0x18,
  0xd9, 0xfa, 0xc2, 0x05, 0xfc, 0xd3, 0xf9, 0xf9, 0xad, 0x0e, 0x16, 0xf5,
  0x0b, 0x28, 0xfa, 0xfc, 0xdf, 0xf7, 0x36, 0x0d, 0x0d, 0xb0, 0xfb, 0x24,
  0xe0, 0xf7, 0x04, 0x45, 0xe6, 0xd8, 0xe5, 0xf8, 0xd1, 0xfe, 0x00, 0x03,
  0xd2, 0xfc, 0xdd, 0xfb, 0x35, 0x06, 0xf9, 0x40, 0x17, 0xf7, 0x45, 0x1f,
  0x22, 0xf4, 0x06, 0xf6, 0x12, 0x16, 0x04, 0xfe, 0xf9, 0xf2, 0x1c, 0xfe,
  0xfb, 0x09, 0xfd, 0x19, 0xf4, 0xff, 0xe1, 0xff, 0xf9, 0xf5, 0xfb, 0xec,
  0xdf, 0xfa, 0x1e, 0xf4, 0x37, 0x00, 0xdd, 0xfe, 0xfc, 0xe7, 0x1a, 0xff,
  0x00, 0x10, 0xf6, 0xfa, 0xf5, 0xfd, 0xf5, 0x2e, 0xf4, 0xfa, 0xff, 0x01,
  0x18, 0x03, 0x1a, 0x29, 0xe2, 0xf8, 0xe2, 0x12, 0x3d, 0x0c, 0x0c, 0xe1,
  0x21, 0xec, 0xe1, 0x18, 0x1d, 0xf5, 0x07, 0xe9, 0x0b, 0x17, 0xe8, 0x34,
  0x05, 0xf7, 0x32, 0x06, 0xf6, 0xec, 0xfb, 0x14, 0xe5, 0xf1, 0xe7, 0x1d,
  0x23, 0xd6, 0xef, 0xed, 0xf4, 0xea, 0xfe, 0x08, 0x20, 0xdc, 0x0d, 0x1c,
  0xd8, 0xeb, 0x19, 0xe3, 0x13, 0x14, 0x7f, 0xe5, 0xfe, 0xe4, 0xef, 0x38,
  0xf3, 0x04, 0x1e, 0x06, 0xf5, 0x24, 0x07, 0x2a, 0x2a, 0x01, 0x06, 0x17,
  0x3c, 0x03, 0x0e, 0xfb, 0x10, 0xe2, 0x00, 0x0c, 0xcb, 0xd5, 0x0a, 0x23,
  0xed, 0xf7, 0xf3, 0xe7, 0xf7, 0xf8, 0x26, 0xf4, 0x0b, 0xff, 0xe4, 0x1f,
  0x03, 0x0c, 0x9d, 0x16, 0xf9, 0xdc, 0x28, 0x04, 0xda, 0x0b, 0x02, 0xf9,
  0x08, 0x09, 0xde, 0x1b, 0xea, 0xf5, 0x02, 0x07, 0xff, 0xb6, 0xf3, 0x00,
  0xfc, 0xf3, 0x04, 0xeb, 0x06, 0x0b, 0xf7, 0x13, 0x20, 0x03, 0x00, 0xf0,
  0xea, 0xf3, 0x18, 0xf5, 0x1e, 0x07, 0xf9, 0x27, 0x1f, 0xfc, 0x32, 0x1a,
  0xfa, 0xf9, 0x12, 0x1c, 0xe8, 0x11, 0x06, 0x0e, 0xf3, 0x0c, 0x16, 0xf6,
  0x08, 0x1c, 0xea, 0x11, 0xef, 0x15, 0xe6, 0x0f, 0xed, 0x3e, 0x2f, 0xee,
  0xec, 0x0a, 0x10, 0x12, 0x30, 0x0d, 0xd8, 0x05, 0xfb, 0xf5, 0xed, 0x10,
  0xff, 0xe8, 0xdc, 0xd6, 0xfd, 0x06, 0xfb, 0xd9, 0x0c, 0xed, 0x11, 0x03,
  0x2f, 0x03, 0x09, 0x18, 0xe7, 0xef, 0x0f, 0x15, 0x3a, 0x01, 0x17, 0x09,
  0x25, 0xe5, 0xd5, 0x1b, 0x1d, 0xf6, 0xfe, 0xfb, 0xef, 0x04, 0x0e, 0x20,
  0xf6, 0x0c, 0xef, 0xe8, 0x01, 0x04, 0xf6, 0x06, 0xeb, 0x01, 0x03, 0xf0,
  0x23, 0xe9, 0x15, 0xf0, 0x15, 0x0f, 0xfb, 0x0c, 0xfd, 0xf3, 0xd0, 0x01,
  0xfc, 0x01, 0x10, 0xec, 0x10, 0x41, 0x24, 0xab, 0xf8, 0xe9, 0xfd, 0xcc,
  0x04, 0xdd, 0x0c, 0x11, 0xef, 0x19, 0xf5, 0xfa, 0x18, 0xf4, 0x2a, 0x12,
  0x1f, 0xfb, 0x03, 0x12, 0xf9, 0xe4, 0xfb, 0x26, 0xf0, 0x03, 0xf9, 0x08,
  0x01, 0xfd, 0xd2, 0xef, 0xfa, 0x0d, 0x0f, 0x16, 0x08, 0xff, 0x00, 0x02,
  0x1c, 0x32, 0xc7, 0x13, 0xf1, 0xeb, 0x1a, 0xf9, 0xd5, 0xf1, 0x14, 0xfb,
  0xfe, 0x14, 0x18, 0xef, 0x04, 0x11, 0x04, 0xeb, 0x01, 0xed, 0xdc, 0x06,
  0x08, 0xfa, 0xf0, 0xe9, 0xfc, 0xea, 0xeb, 0x04, 0x0a, 0x17, 0x0c, 0x0b,
  0xe7, 0x09, 0xfe, 0xe7, 0x1a, 0x03, 0x0b, 0x34, 0xef, 0x08, 0x0b, 0x0d,
  0x1a, 0x07, 0xfd, 0x0d, 0x28, 0x01, 0xeb, 0x04, 0x05, 0xfe, 0x0a, 0xfc,
  0xfa, 0x10, 0xfb, 0x29, 0x07, 0x2b, 0xea, 0x06, 0xf3, 0x3b, 0x1d, 0xf7,
  0xf3, 0x07, 0x05, 0x0d, 0x06, 0x19, 0x1a, 0x0d, 0x14, 0x01, 0xf6, 0x01,
  0x1d, 0xf7, 0xdd, 0x0d, 0x0a, 0xf0, 0xff, 0xfb, 0x05, 0xdf, 0x01, 0xfe,
  0x10, 0x0e, 0x17, 0x08, 0xfe, 0xfd, 0xe7, 0x04, 0x27, 0xfd, 0x08, 0x21,
  0xf8, 0x06, 0xfb, 0x0f, 0x2d, 0x04, 0x03, 0xe9, 0x0a, 0xf8, 0x06, 0x11,
  0xf3, 0x16, 0xcf, 0xec, 0x08, 0x20, 0xf6, 0x16, 0xfb, 0x3f, 0xe7, 0x0f,
  0x08, 0x1c, 0x15, 0xfc, 0xfc, 0xef, 0x0d, 0x0d, 0xe6, 0x01, 0x02, 0xf9,
  0x01, 0x05, 0x1b, 0xf2, 0x0f, 0x04, 0xfa, 0x15, 0x08, 0xee, 0xf8, 0x0c,
  0xef, 0xe3, 0xfc, 0x06, 0xe2, 0xfc, 0x09, 0xee, 0x28, 0xf9, 0xf5, 0xec,
  0x24, 0x05, 0x05, 0x18, 0xef, 0x0c, 0xc3, 0x12, 0xf4, 0x20, 0x06, 0xef,
  0x08, 0xf5, 0xf3, 0xd6, 0xfa, 0x1c, 0x10, 0xe0, 0xe9, 0xe8, 0xfd, 0x10,
  0xa5, 0x0a, 0xf5, 0x06, 0x24, 0xcf, 0xe4, 0x29, 0x05, 0x11, 0xfd, 0x00,
  0xff, 0x0f, 0x07, 0x05, 0x0a, 0x06, 0xff, 0x11, 0x2f, 0xfc, 0x1a, 0x03,
  0x0c, 0x1b, 0x15, 0xf8, 0xb8, 0x07, 0xac, 0xd3, 0x02, 0xeb, 0x18, 0x1b,
  0xef, 0x0f, 0x03, 0xed, 0x00, 0x02, 0x07, 0xfc, 0xeb, 0xf4, 0xf7, 0xe6,
  0x06, 0x12, 0xe5, 0x04, 0x06, 0xfa, 0xee, 0xe6, 0x07, 0x14, 0xf3, 0xed,
  0x0f, 0xff, 0x1c, 0x1c, 0xec, 0x06, 0xf8, 0x09, 0x0f, 0x1a, 0xfc, 0x1d,
  0xf0, 0x09, 0x02, 0xfe, 0x02, 0x00, 0x0a, 0x04, 0xfc, 0x04, 0xee, 0x04,
  0xfd, 0xf4, 0x1f, 0xfe, 0xed, 0x0b, 0x0a, 0xf8, 0x29, 0xfd, 0x97, 0xc9,
  0xd2, 0x09, 0x04, 0x05, 0xfa, 0x16, 0x03, 0xf1, 0xf8, 0x26, 0xe4, 0xf6,
  0xe7, 0x17, 0x10, 0x07, 0xf9, 0x1b, 0xe3, 0x06, 0x15, 0x0b, 0xe7, 0x44,
  0x3c, 0xeb, 0x04, 0x11, 0xf8, 0x30, 0x3f, 0x14, 0xea, 0xf7, 0xe3, 0x4a,
  0x01, 0xca, 0xeb, 0x0b, 0x06, 0xfb, 0x0c, 0x0c, 0x08, 0xfd, 0x09, 0xf0,
  0x09, 0xef, 0xf3, 0xfe, 0x12, 0xd7, 0x16, 0xe2, 0xf8, 0xf5, 0x02, 0xec,
  0x2f, 0xda, 0xd7, 0xb7, 0xd4, 0x18, 0xe7, 0x13, 0x0b, 0x16, 0xf7, 0xe0,
  0xf9, 0x1f, 0xff, 0x09, 0xf9, 0x16, 0x15, 0xf2, 0xfe, 0x21, 0x01, 0xe3,
  0xf3, 0x06, 0x02, 0xec, 0xe2, 0x0a, 0x2c, 0xe5, 0xdc, 0xf5, 0xda, 0x0d,
  0xe8, 0x05, 0xfb, 0xef, 0x2f, 0xda, 0xe6, 0x16, 0x0f, 0xf3, 0xf1, 0xee,
  0x03, 0x12, 0x2e, 0xee, 0x01, 0x09, 0x18, 0x1e, 0x0a, 0xe9, 0xfa, 0x1c,
  0xe9, 0xfb, 0x0c, 0x23, 0xbd, 0x18, 0xdb, 0xf8, 0x0c, 0xf2, 0x22, 0x35,
  0xf6, 0xf0, 0x21, 0xf3, 0xf8, 0x03, 0xf4, 0x0d, 0x27, 0xf5, 0x02, 0x0c,
  0xf3, 0x02, 0x07, 0xfa, 0x11, 0xf1, 0x03, 0x06, 0xfe, 0xfe, 0x11, 0xd4,
  0xf5, 0x05, 0x01, 0xfa, 0x1f, 0x0d, 0xf4, 0xed, 0x17, 0x1a, 0xe9, 0x06,
  0x09, 0x09, 0xf9, 0xee, 0x18, 0x17, 0x09, 0x05, 0xf3, 0x0a, 0x0a, 0x1c,
  0xdb, 0xe7, 0xf6, 0xf7, 0xee, 0x16, 0xe5, 0x14, 0x32, 0x16, 0xd1, 0xdd,
  0xe8, 0xf6, 0x14, 0x03, 0x05, 0x07, 0x20, 0xe9, 0xff, 0x0d, 0xf2, 0x11,
  0x1e, 0x06, 0x03, 0x06, 0xf1, 0x0b, 0xfb, 0x06, 0x0e, 0x12, 0xef, 0x27,
  0x27, 0xe0, 0xf5, 0x0e, 0x06, 0x26, 0x38, 0xf4, 0x18, 0x0a, 0xff, 0x0e,
  0x2c, 0xd2, 0xfc, 0x07, 0x12, 0x03, 0x0b, 0x0d, 0x14, 0xf8, 0x02, 0x0b,
  0x01, 0xec, 0x07, 0x04, 0xf3, 0xe8, 0x04, 0xcf, 0xff, 0xeb, 0xec, 0x11,
  0x1e, 0x0d, 0xf0, 0xd1, 0xf2, 0x0f, 0xee, 0x1c, 0x51, 0xfb, 0x10, 0xf4,
  0xf1, 0x27, 0xf5, 0x08, 0x06, 0x08, 0x0d, 0x10, 0x0a, 0xfd, 0x1e, 0x02,
  0xe7, 0xe7, 0xe3, 0xe9, 0xec, 0x08, 0x24, 0x02, 0x01, 0xfd, 0xda, 0x04,
  0xe8, 0x02, 0x05, 0x06, 0x01, 0x08, 0x12, 0xdd, 0x0c, 0xcd, 0xf5, 0xfc,
  0xfb, 0xf8, 0xfb, 0xfe, 0xe5, 0x10, 0x40, 0xf2, 0xa6, 0x0f, 0x09, 0x0d,
  0xb7, 0xf5, 0xfa, 0xf3, 0xdd, 0x02, 0xe9, 0x0b, 0x2f, 0x14, 0x1b, 0xfe,
  0xe1, 0x0d, 0xf4, 0x11, 0xed, 0xf3, 0xf0, 0x2e, 0x25, 0x09, 0x10, 0x01,
  0xf6, 0xf0, 0xff, 0x0b, 0x01, 0x06, 0x1e, 0x21, 0xf8, 0xe5, 0xf7, 0xf1,
  0xee, 0x15, 0xfb, 0x03, 0x1b, 0xe1, 0x0a, 0x08, 0xf0, 0x2d, 0x1b, 0xf2,
  0x10, 0xdb, 0xf3, 0x01, 0x02, 0xf2, 0xfb, 0xfc, 0xf6, 0xf7, 0x22, 0xe4,
  0xcd, 0x1f, 0x17, 0x08, 0xe2, 0x08, 0x03, 0x13, 0x33, 0x0f, 0x11, 0x0d,
  0x04, 0x03, 0xf9, 0x2b, 0xf1, 0x03, 0xfd, 0x00, 0xfb, 0xe9, 0x0f, 0xfb,
  0x27, 0xff, 0xf8, 0xff, 0xf6, 0x06, 0x0d, 0x0d, 0x14, 0x08, 0x08, 0x30,
  0x04, 0xfe, 0xdf, 0x25, 0xf3, 0x13, 0xfe, 0xef, 0x1d, 0xf1, 0xfd, 0x09,
  0xff, 0xe1, 0x10, 0xee, 0xec, 0xea, 0xf7, 0x08, 0x0e, 0xd1, 0xf1, 0x07,
  0xf6, 0x03, 0x1b, 0xe2, 0xdf, 0x22, 0x52, 0xe6, 0xf6, 0x00, 0xff, 0x12,
  0x03, 0x1d, 0xfa, 0xf2, 0x04, 0x10, 0xe7, 0x1d, 0x7f, 0x03, 0x0d, 0x05,
  0xf4, 0x12, 0x08, 0xf9, 0xf6, 0xf7, 0xda, 0x0d, 0xe2, 0xd2, 0x07, 0x2f,
  0x13, 0x10, 0xf4, 0x08, 0x12, 0x39, 0xbf, 0xed, 0x18, 0x21, 0x13, 0xe2,
  0xfa, 0xfd, 0x14, 0xf3, 0xd6, 0x0e, 0x0e, 0x0b, 0x0c, 0x0b, 0xfc, 0x18,
  0xdd, 0x08, 0x04, 0x54, 0xe3, 0x24, 0xfc, 0x0f, 0xd5, 0x21, 0xfd, 0x0b,
  0x02, 0xf5, 0xf5, 0x18, 0x22, 0x01, 0x11, 0xe6, 0xff, 0x14, 0x0c, 0x2c,
  0x1e, 0xfb, 0x03, 0xf8, 0xfe, 0x1f, 0xf7, 0x23, 0x4e, 0x1e, 0xfd, 0x2d,
  0xda, 0xe8, 0x20, 0x23, 0x25, 0xef, 0xef, 0x32, 0xf7, 0xe4, 0xc1, 0x1b,
  0xf4, 0x1f, 0x04, 0x20, 0x1b, 0x12, 0xed, 0x28, 0xbe, 0x26, 0x0e, 0xff,
  0x25, 0xe4, 0x0a, 0x0d, 0xf9, 0xf0, 0xe3, 0x48, 0xe6, 0x2b, 0x1a, 0xdb,
  0xf0, 0x09, 0x26, 0x13, 0xeb, 0xf6, 0xef, 0x22, 0x14, 0x26, 0x35, 0x07,
  0x1e, 0x22, 0x18, 0x13, 0x48, 0xf3, 0xeb, 0x08, 0xfc, 0x10, 0xf9, 0x14,
  0x51, 0x03, 0x14, 0x2f, 0xfb, 0xdb, 0x21, 0x05, 0x04, 0xf5, 0x27, 0x48,
  0xdd, 0xc9, 0xe5, 0x26, 0x21, 0xbe, 0xfe, 0x0c, 0xdb, 0x22, 0x0a, 0x1e,
  0xf6, 0xee, 0xf3, 0x0d, 0x2d, 0xcd, 0xec, 0xe3, 0xf7, 0xda, 0xf2, 0x35,
  0x0d, 0xef, 0x17, 0xc6, 0xef, 0x19, 0x1d, 0x1f, 0xd7, 0xcf, 0x0b, 0x19,
  0xef, 0x4f, 0x7f, 0x38, 0x2c, 0xe3, 0x25, 0xaf, 0xf3, 0xe4, 0xf3, 0x26,
  0x0c, 0xe6, 0x06, 0x0b, 0x59, 0x0b, 0x19, 0x2c, 0xb9, 0xe7, 0xe0, 0x2e,
  0x0d, 0x26, 0x12, 0xda, 0x05, 0x34, 0xe7, 0xfe, 0xf5, 0x04, 0x0b, 0xd2,
  0x1b, 0x11, 0xbc, 0xd1, 0x0a, 0x30, 0x26, 0x14, 0xae, 0xff, 0x05, 0xfe,
  0xfe, 0x0e, 0x0b, 0x0e, 0xec, 0xfd, 0x0f, 0x0e, 0xf7, 0xfd, 0x51, 0xf9,
  0x06, 0xf9, 0xe7, 0xdc, 0x0c, 0xbf, 0x02, 0xe7, 0xe7, 0x04, 0xf8, 0x39,
  0x09, 0x12, 0x16, 0xe6, 0xf8, 0x0d, 0xf1, 0x26, 0x22, 0x08, 0x1c, 0x27,
  0xb5, 0xf2, 0xde, 0x36, 0x2e, 0xfc, 0x2a, 0xf7, 0x05, 0xfa, 0xfd, 0x0e,
  0x0d, 0xcb, 0x0d, 0x14, 0x16, 0xeb, 0xab, 0xfd, 0xf4, 0x2e, 0x2e, 0x04,
  0xea, 0xea, 0xe4, 0x01, 0x08, 0x07, 0x10, 0x0a, 0xde, 0xfc, 0x1b, 0x02,
  0xf4, 0xe3, 0x5d, 0x14, 0xe7, 0x0c, 0xe2, 0xdd, 0x17, 0xb7, 0x0f, 0xf9,
  0x0f, 0xfe, 0x11, 0xfe, 0x05, 0x03, 0x0f, 0x15, 0xf6, 0x25, 0x09, 0x11,
  0x41, 0x18, 0x05, 0x1c, 0x20, 0xe8, 0xe9, 0x01, 0x19, 0xf9, 0x10, 0x12,
  0xe3, 0x02, 0xe8, 0xee, 0x01, 0x15, 0xfa, 0x0b, 0xd2, 0xed, 0xe4, 0x1b,
  0xdf, 0xff, 0x27, 0xd7, 0x16, 0xf7, 0xef, 0x14, 0xed, 0x05, 0x05, 0xf8,
  0x00, 0xf1, 0xf3, 0x00, 0x12, 0x00, 0x15, 0x21, 0xe5, 0xf9, 0xe8, 0xff,
  0xfe, 0xe2, 0x19, 0x1e, 0x05, 0xcd, 0xfd, 0xf6, 0xe2, 0x01, 0xfb, 0x1d,
  0xef, 0xee, 0xf8, 0x14, 0x4c, 0x1a, 0xdb, 0x2d, 0xc5, 0xec, 0x10, 0x21,
  0x01, 0x1c, 0xe1, 0xf5, 0xef, 0x31, 0xf5, 0xf6, 0xe6, 0x08, 0x10, 0xf3,
  0xfd, 0x21, 0x8d, 0xf3, 0x28, 0x41, 0x06, 0x26, 0xda, 0x14, 0x06, 0xf9,
  0xf8, 0x08, 0x1e, 0x00, 0xf1, 0xdf, 0x16, 0x08, 0x02, 0x05, 0x4d, 0xd2,
  0xee, 0xf8, 0xd0, 0xda, 0x02, 0x10, 0x12, 0x02, 0x16, 0xfd, 0x03, 0x21,
  0x19, 0x06, 0x0e, 0xf9, 0x11, 0x0e, 0x01, 0x21, 0x05, 0x0a, 0xfe, 0x19,
  0xda, 0x13, 0xf5, 0x20, 0x02, 0xf9, 0x2e, 0xe2, 0xfd, 0xf6, 0x00, 0xf8,
  0xec, 0xea, 0xf2, 0x17, 0xe0, 0xf6, 0xd0, 0x04, 0x1c, 0x23, 0x0b, 0xfb,
  0x14, 0xfa, 0x1a, 0xfd, 0x0c, 0xfd, 0x14, 0xeb, 0xf6, 0xd9, 0xf1, 0xfe,
  0xf3, 0x04, 0x35, 0xdf, 0xe1, 0xf3, 0xec, 0xf5, 0xec, 0x10, 0xfc, 0xf2,
  0x32, 0x05, 0x36, 0xf9, 0x0f, 0x08, 0x24, 0xfd, 0x14, 0x34, 0xf2, 0x09,
  0x09, 0xfe, 0x19, 0x27, 0x24, 0xef, 0x02, 0x08, 0x21, 0xf0, 0xfe, 0x04,
  0x06, 0x09, 0x09, 0xe6, 0xe1, 0x15, 0xeb, 0x28, 0xcd, 0x02, 0xfe, 0x04,
  0xf3, 0xea, 0x1b, 0xf4, 0x1c, 0x02, 0xf9, 0x02, 0xf6, 0x09, 0x09, 0xf9,
  0x36, 0xd3, 0xed, 0x0c, 0x0e, 0xf1, 0x06, 0xe7, 0xe1, 0x02, 0xe3, 0x03,
  0xfe, 0x3c, 0x00, 0xed, 0xf8, 0x08, 0x17, 0x1f, 0xcf, 0x14, 0x21, 0x01,
  0x1c, 0x0b, 0x05, 0x06, 0x14, 0x00, 0xee, 0x2a, 0xeb, 0x19, 0x1f, 0xe7,
  0xd2, 0xf9, 0xef, 0x16, 0xf7, 0xe9, 0xcc, 0xfd, 0x1a, 0xd7, 0x2e, 0xf9,
  0x10, 0x23, 0xcd, 0x64, 0x20, 0xac, 0x15, 0x23, 0x29, 0xe2, 0xe5, 0xe4,
  0xe8, 0xf1, 0xb7, 0x14, 0xfb, 0x00, 0x26, 0xc8, 0xb8, 0x4e, 0x35, 0xdb,
  0xf4, 0xdd, 0xb8, 0xb5, 0xdf, 0x11, 0x53, 0x19, 0xe8, 0xea, 0x90, 0x46,
  0x34, 0x05, 0x3b, 0xf5, 0x1a, 0x00, 0xfc, 0x03, 0x9b, 0xf7, 0xe0, 0x29,
  0x08, 0x10, 0x2f, 0xe0, 0xf2, 0xdf, 0x31, 0x0f, 0xe4, 0x1a, 0x02, 0x3b,
  0xd7, 0x08, 0x03, 0x19, 0xeb, 0x01, 0xc8, 0x48, 0x16, 0xd6, 0x09, 0x0e,
  0xee, 0xd0, 0xf8, 0xf1, 0xea, 0xcc, 0x9f, 0x1d, 0xe4, 0xf1, 0x26, 0xe0,
  0xc2, 0x4f, 0x41, 0x00, 0xe4, 0xe8, 0xe6, 0xf0, 0xfa, 0x2a, 0x39, 0x11,
  0x1c, 0xc2, 0xff, 0x36, 0x43, 0x07, 0x22, 0x06, 0xf5, 0xdb, 0x11, 0x1b,
  0xe9, 0xf8, 0xeb, 0x24, 0xfc, 0x03, 0x28, 0xf0, 0x16, 0xde, 0x1d, 0x0e,
  0xc2, 0x16, 0xd6, 0x26, 0xdb, 0x0b, 0xec, 0xfc, 0xfc, 0x38, 0xd0, 0x3d,
  0x58, 0xf7, 0x18, 0xdc, 0xd8, 0xb6, 0xfd, 0xbe, 0xec, 0xcf, 0xa4, 0x0b,
  0xd8, 0xfd, 0xf2, 0xcd, 0xe0, 0x37, 0x0f, 0x22, 0xf6, 0xc5, 0xea, 0xea,
  0xd8, 0x5f, 0x4c, 0x31, 0x3e, 0xc6, 0xdf, 0xed, 0x3c, 0xe9, 0x19, 0x0a,
  0x03, 0xd3, 0xfe, 0x0f, 0xef, 0xe3, 0x10, 0x2b, 0x1a, 0x28, 0x0f, 0xfe,
  0x2b, 0xfb, 0xef, 0x0c, 0x2e, 0x02, 0xfc, 0x08, 0x12, 0x07, 0x28, 0xea,
  0x21, 0x0b, 0xc1, 0xde, 0xde, 0xe4, 0x49, 0x24, 0xc7, 0x55, 0x05, 0x60,
  0x1a, 0x0e, 0xd9, 0x07, 0xf4, 0xe9, 0xd7, 0xfc, 0xf0, 0x83, 0xe4, 0xbf,
  0x28, 0x0b, 0xec, 0x3a, 0xfe, 0xd9, 0xd3, 0x00, 0xff, 0x0a, 0xf7, 0xef,
  0x21, 0x15, 0x0b, 0x0d, 0x1b, 0x04, 0x1d, 0xef, 0x05, 0xff, 0xd6, 0x1f,
  0x23, 0x1d, 0x21, 0x07, 0x11, 0xfb, 0x07, 0x1f, 0x13, 0xeb, 0x31, 0x01,
  0xea, 0xdd, 0x17, 0x15, 0xed, 0x12, 0xef, 0xd1, 0xb1, 0xd3, 0x50, 0x19,
  0xbf, 0x3a, 0x30, 0x7f, 0xf1, 0x0a, 0xc6, 0x10, 0x16, 0x14, 0xe9, 0xff,
  0x37, 0xe5, 0x28, 0xbf, 0x0f, 0xf0, 0xda, 0x3b, 0x2f, 0xd7, 0xf0, 0x06,
  0xea, 0xcf, 0x3d, 0x24, 0xe1, 0x06, 0xff, 0xf3, 0x15, 0x0c, 0x1c, 0xe5,
  0x21, 0x0b, 0xf7, 0x48, 0x40, 0x18, 0xff, 0xfb, 0x08, 0x04, 0x0e, 0x13,
  0xd4, 0xd5, 0x18, 0xe1, 0xfb, 0x1c, 0xf2, 0x10, 0x18, 0x20, 0xdc, 0x06,
  0xa1, 0xd8, 0x35, 0x32, 0xa5, 0x45, 0x26, 0x79, 0xe9, 0x19, 0xd6, 0xe6,
  0xf2, 0xfa, 0xdc, 0x0f, 0x2f, 0xfa, 0xd9, 0xce, 0xed, 0xe9, 0xeb, 0xcf,
  0x10, 0xe5, 0x39, 0x2c, 0xfc, 0xd9, 0x26, 0x00, 0xe8, 0xed, 0x01, 0xf5,
  0x2c, 0x0b, 0x02, 0xd2, 0xfe, 0xef, 0xff, 0x4b, 0x01, 0x2a, 0xcb, 0xea,
  0x0f, 0x31, 0xef, 0xdb, 0x26, 0x10, 0x26, 0xfd, 0xbb, 0xd2, 0x34, 0x10,
  0x10, 0x20, 0xe9, 0xcd, 0xf6, 0x17, 0x17, 0x5a, 0x0a, 0x1d, 0xf2, 0xda,
  0x13, 0x00, 0x16, 0xf4, 0xf4, 0x17, 0xcd, 0x27, 0x2d, 0x0e, 0x04, 0xe9,
  0x10, 0x16, 0xef, 0xe3, 0xf1, 0x3b, 0x00, 0xf9, 0x41, 0x0c, 0x06, 0xf1,
  0x1c, 0xfd, 0xf8, 0x0f, 0x51, 0x42, 0x1c, 0xfd, 0x21, 0x03, 0x0e, 0xe9,
  0xfd, 0x11, 0xec, 0x12, 0xe4, 0x30, 0xf6, 0xe8, 0xf0, 0x1a, 0x30, 0x1f,
  0xc2, 0x00, 0x1f, 0x02, 0xd8, 0x0d, 0x04, 0xd2, 0x09, 0xf5, 0x2b, 0x14,
  0xed, 0x10, 0xd6, 0xa3, 0x1f, 0x09, 0xec, 0xe8, 0x04, 0x03, 0xc8, 0x10,
  0x00, 0xc8, 0x2f, 0xea, 0x24, 0x13, 0xfc, 0xfe, 0x23, 0x16, 0x1e, 0xfa,
  0x20, 0xd3, 0xf4, 0x16, 0xf0, 0x03, 0x10, 0xed, 0x3f, 0x20, 0xf1, 0xf7,
  0x74, 0x24, 0xe9, 0x06, 0x0f, 0x17, 0xd1, 0x24, 0x21, 0x15, 0xf1, 0xcb,
  0x1d, 0xcd, 0x36, 0x08, 0xf2, 0x04, 0xf8, 0x1a, 0xf5, 0x2d, 0xe6, 0xe0,
  0xee, 0xf1, 0x24, 0xf2, 0xef, 0x2e, 0xe3, 0xb9, 0x31, 0x1f, 0xf6, 0xe4,
  0x08, 0x15, 0xba, 0x1b, 0x06, 0xd4, 0xbc, 0xd8, 0x10, 0x0a, 0xe9, 0x18,
  0xde, 0xcb, 0x13, 0xd9, 0x1e, 0xef, 0xd4, 0xb3, 0xde, 0xee, 0x12, 0xf3,
  0x55, 0x1f, 0xe6, 0xe0, 0x50, 0x09, 0x05, 0x19, 0xc6, 0x96, 0x11, 0x1d,
  0x04, 0xe2, 0xde, 0x10, 0x04, 0x0a, 0xfb, 0xf2, 0x0f, 0x0a, 0x0f, 0xc9,
  0xe8, 0x0d, 0xfb, 0x1f, 0x20, 0xdb, 0x18, 0x03, 0xec, 0xee, 0xcc, 0xed,
  0xef, 0xe8, 0xe2, 0x00, 0x0d, 0x0b, 0xd3, 0xdd, 0xca, 0x1c, 0xf2, 0xa4,
  0x03, 0xe3, 0x18, 0xdf, 0xf7, 0xda, 0x06, 0x2a, 0x15, 0x12, 0xfc, 0xb3,
  0x1e, 0x04, 0x04, 0x0b, 0x06, 0xf8, 0x4c, 0x26, 0xe7, 0xe6, 0xe1, 0xff,
  0x27, 0xd9, 0x0b, 0x1c, 0xd3, 0xf6, 0xea, 0x07, 0xec, 0x00, 0x0e, 0xf3,
  0xde, 0x02, 0xf0, 0x09, 0x16, 0xd5, 0x15, 0x3f, 0x06, 0x1d, 0x1a, 0xc0,
  0xe8, 0xe6, 0x07, 0xef, 0x1e, 0xfc, 0xec, 0x05, 0x1c, 0x02, 0xe8, 0x00,
  0x03, 0x46, 0x03, 0x07, 0xf7, 0xff, 0x03, 0x0c, 0xea, 0xe5, 0x01, 0x09,
  0x06, 0x12, 0x0c, 0xff, 0xf4, 0x0e, 0x01, 0x0b, 0x09, 0x1f, 0x31, 0xf7,
  0x1f, 0xda, 0xdb, 0x08, 0xdb, 0xaf, 0xf0, 0x07, 0xfd, 0x16, 0xda, 0xdd,
  0x28, 0xe9, 0xe7, 0x4e, 0x32, 0xf2, 0xf5, 0xfd, 0xf3, 0xc8, 0x28, 0xfe,
  0xea, 0xf8, 0x1f, 0xdd, 0x00, 0x12, 0x3a, 0xd8, 0x45, 0x3c, 0x1a, 0x03,
  0x50, 0xdf, 0xd1, 0xfd, 0xd8, 0x06, 0x81, 0x35, 0x26, 0x06, 0xf9, 0xf6,
  0x12, 0xda, 0xfb, 0x00, 0xfb, 0x2c, 0xf8, 0xa5, 0xb2, 0x0f, 0xe5, 0x44,
  0x14, 0xfc, 0x0c, 0x0b, 0x05, 0xeb, 0x2d, 0x1c, 0xd0, 0xb8, 0x02, 0x21,
  0x1a, 0xe6, 0x08, 0x13, 0x06, 0x18, 0xdd, 0x04, 0x21, 0xd6, 0x27, 0xbd,
  0xfd, 0xf8, 0x18, 0x0a, 0xfc, 0xf2, 0x0e, 0x42, 0xd2, 0x06, 0xbd, 0x03,
  0xec, 0xed, 0x00, 0xef, 0xfb, 0xfc, 0xf9, 0xe2, 0xd3, 0x05, 0x18, 0xd1,
  0xfb, 0xf3, 0x16, 0xfc, 0x0b, 0xb4, 0x0e, 0x0e, 0x1e, 0xec, 0x1a, 0xb2,
  0x06, 0xfc, 0xe0, 0x1f, 0x08, 0x08, 0x19, 0xf5, 0xe9, 0xd8, 0x18, 0xf4,
  0x14, 0x19, 0xfe, 0x1c, 0xe0, 0x0a, 0xe0, 0x08, 0xf3, 0x23, 0xf2, 0xfd,
  0xf6, 0x1a, 0xf5, 0xee, 0x2c, 0x0c, 0x11, 0x10, 0xf9, 0x07, 0x01, 0xd1,
  0xc2, 0x08, 0xfc, 0x01, 0xf9, 0xf7, 0x05, 0xf2, 0x05, 0x0b, 0xe4, 0xe3,
  0x14, 0x3d, 0xf3, 0xfc, 0xe9, 0xf1, 0xf5, 0xe7, 0x00, 0xd5, 0xfa, 0x0b,
  0xf4, 0xec, 0x0f, 0x40, 0x2c, 0xf2, 0xf5, 0x11, 0x0e, 0x02, 0x11, 0xf7,
  0x2c, 0xd3, 0xd7, 0xfc, 0x03, 0xde, 0xfa, 0xf9, 0x02, 0x00, 0xcf, 0x18,
  0x26, 0xe1, 0xf1, 0x05, 0x11, 0x65, 0x15, 0xfb, 0x2c, 0xfc, 0x0c, 0x12,
  0xd0, 0x1e, 0xfd, 0xe4, 0x1c, 0xf0, 0x3f, 0xf0, 0x34, 0xe1, 0x04, 0xee,
  0x38, 0x0d, 0xd4, 0xd2, 0xe8, 0x1b, 0xa4, 0x1d, 0x19, 0xdc, 0x0c, 0x97,
  0x0a, 0x0f, 0x1c, 0x00, 0xf6, 0x31, 0xef, 0xe0, 0x02, 0x05, 0xc5, 0x38,
  0x0b, 0x0a, 0x18, 0xff, 0x1e, 0xd4, 0x2a, 0x11, 0xac, 0xb5, 0xfd, 0x13,
  0xff, 0xf2, 0x14, 0x14, 0x0b, 0x15, 0xec, 0x0c, 0xc3, 0xf6, 0x39, 0xc3,
  0x0b, 0xf5, 0x20, 0xef, 0xf8, 0xe8, 0x0c, 0x50, 0xf7, 0xf8, 0xea, 0x0f,
  0x02, 0xf4, 0x11, 0xe7, 0xbb, 0xfc, 0xf4, 0xf1, 0xba, 0x23, 0x22, 0xe4,
  0xfd, 0x08, 0x14, 0x08, 0x19, 0xe7, 0x11, 0xfc, 0xf5, 0xe0, 0xf8, 0xde,
  0xf7, 0x09, 0xf5, 0x2a, 0xfb, 0xec, 0x05, 0xe6, 0xf2, 0xf0, 0x24, 0xf4,
  0xef, 0x08, 0xf9, 0x16, 0xe3, 0x0a, 0xfa, 0xf9, 0xf2, 0x40, 0xfb, 0x08,
  0xde, 0xfd, 0xf7, 0xec, 0x14, 0xdd, 0x1f, 0xf6, 0xe1, 0x20, 0x15, 0x07,
  0xef, 0xf1, 0xf5, 0x20, 0x00, 0xec, 0xfe, 0x03, 0xff, 0x20, 0xfa, 0xf3,
  0x15, 0x02, 0xde, 0xfd, 0xdb, 0xf1, 0x0d, 0x0f, 0x07, 0xf6, 0xf6, 0x03,
  0x0f, 0xed, 0x00, 0x3a, 0xf5, 0xfb, 0xf3, 0x2f, 0xfa, 0xf0, 0x26, 0xf1,
  0xf8, 0xd2, 0x0d, 0xf7, 0x1f, 0xb9, 0x0a, 0x00, 0xe9, 0xf0, 0xca, 0x2f,
  0x06, 0xe1, 0x03, 0xee, 0x26, 0x41, 0x21, 0xea, 0xf3, 0xb7, 0x0f, 0x1d,
  0xf4, 0x27, 0x06, 0xd6, 0x62, 0xd3, 0x0d, 0x17, 0x06, 0xde, 0x06, 0xf9,
  0xfa, 0x10, 0xd6, 0xdd, 0xf5, 0x01, 0xcb, 0xf0, 0x26, 0xed, 0x03, 0xc6,
  0xf9, 0x13, 0x21, 0xff, 0xff, 0x24, 0xf3, 0xd2, 0x20, 0xef, 0xda, 0x41,
  0x08, 0xfe, 0x1f, 0xf0, 0x16, 0xbb, 0x43, 0xfa, 0xda, 0x02, 0x04, 0x35,
  0x2b, 0x1c, 0xef, 0x20, 0x25, 0x08, 0xf0, 0xdf, 0xcf, 0x44, 0x32, 0xde,
  0x35, 0xfd, 0x14, 0x32, 0xa8, 0x3a, 0x03, 0x01, 0x18, 0x2f, 0x16, 0x4b,
  0x05, 0xf4, 0xd2, 0x0b, 0xd3, 0x2a, 0xea, 0x0a, 0x26, 0xed, 0xf3, 0xe8,
  0x08, 0xf5, 0x17, 0xe2, 0x10, 0x1d, 0x0f, 0x24, 0xf9, 0xf9, 0x24, 0x5e,
  0x06, 0xee, 0xf4, 0x0f, 0x08, 0x15, 0xf2, 0xf6, 0x07, 0x2c, 0xde, 0x22,
  0xe7, 0xcf, 0x1c, 0x2f, 0x27, 0xf3, 0x24, 0x31, 0xee, 0x0c, 0xff, 0x04,
  0x07, 0x13, 0x17, 0xc1, 0x21, 0x04, 0x01, 0x10, 0xbc, 0xe4, 0xf2, 0x0f,
  0x43, 0xec, 0xf1, 0xfb, 0x27, 0xea, 0xdd, 0x0e, 0xcd, 0xed, 0xde, 0xe5,
  0xfc, 0x1b, 0x23, 0xc0, 0x2a, 0x01, 0x27, 0x0b, 0x03, 0x2c, 0x24, 0x27,
  0xae, 0xe8, 0xcf, 0x24, 0x14, 0x05, 0xca, 0x0e, 0x25, 0xfe, 0xfe, 0xeb,
  0x0d, 0x24, 0xe0, 0x05, 0xee, 0xd4, 0x0a, 0x01, 0x0b, 0xf8, 0x3d, 0x38,
  0xfc, 0xe4, 0x06, 0xda, 0x08, 0xd8, 0xfa, 0xea, 0x27, 0xf5, 0x01, 0x41,
  0xed, 0x0d, 0x11, 0x15, 0x14, 0xc9, 0xce, 0xdc, 0x2c, 0xbf, 0xef, 0x16,
  0xc8, 0x0d, 0x0f, 0xc2, 0xfd, 0x11, 0xfb, 0xe0, 0x06, 0xf9, 0x3a, 0x17,
  0x1d, 0x4e, 0x34, 0x25, 0xaa, 0xe5, 0xd8, 0x01, 0x41, 0x07, 0xe1, 0x0f,
  0x0f, 0xc4, 0x14, 0xf9, 0xf4, 0x0d, 0xf0, 0x09, 0xd1, 0xf5, 0xff, 0x3f,
  0xf8, 0xf5, 0xd8, 0xda, 0x02, 0xfd, 0xf9, 0x0b, 0xcc, 0xf4, 0xfd, 0xd7,
  0xec, 0x00, 0x08, 0xe5, 0x23, 0x27, 0xf2, 0xeb, 0x03, 0xfe, 0x12, 0xfe,
  0xf3, 0x13, 0xc3, 0x17, 0x09, 0x19, 0x18, 0x0f, 0x07, 0x81, 0x1a, 0xf4,
  0xeb, 0xeb, 0x04, 0xe5, 0x11, 0xc9, 0xf3, 0xf0, 0x41, 0x0d, 0x02, 0x3d,
  0xef, 0xe0, 0xee, 0x03, 0x36, 0x34, 0x17, 0x02, 0xea, 0x20, 0x0a, 0xf5,
  0xa6, 0x08, 0x0f, 0x55, 0x23, 0x02, 0x36, 0xfd, 0xe4, 0x07, 0xf7, 0xfb,
  0x01, 0xe7, 0x05, 0xf8, 0x07, 0xe1, 0xf5, 0xde, 0x10, 0x1d, 0x06, 0x03,
  0x14, 0xf9, 0x03, 0xfb, 0x25, 0x00, 0xaf, 0xfa, 0xf6, 0xfa, 0xf4, 0x07,
  0x19, 0xcf, 0x53, 0x06, 0xe1, 0xf2, 0x00, 0xf9, 0xcd, 0xc5, 0x0a, 0xe8,
  0x00, 0xe5, 0xda, 0x21, 0xe8, 0xf6, 0x22, 0x19, 0x22, 0x12, 0xfd, 0xe1,
  0xdf, 0x17, 0xfd, 0xfe, 0xb0, 0x0d, 0x13, 0x40, 0x31, 0xf9, 0x47, 0x18,
  0xe9, 0xf0, 0x0e, 0xba, 0xf5, 0xea, 0xe6, 0xf3, 0x02, 0xf8, 0xff, 0xd7,
  0x1f, 0x32, 0x02, 0x16, 0x0c, 0xf8, 0x81, 0xe1, 0x20, 0xe9, 0xd3, 0xf2,
  0xb4, 0x1a, 0xbf, 0x07, 0x19, 0x03, 0x25, 0xe2, 0x1b, 0x02, 0x08, 0xe8,
  0xf4, 0xfd, 0x32, 0x11, 0xec, 0xbd, 0xc8, 0x34, 0x3b, 0xfc, 0x47, 0x11,
  0x06, 0xf5, 0xf4, 0xe6, 0xd4, 0x20, 0x08, 0x04, 0xeb, 0x20, 0x02, 0x20,
  0x15, 0x07, 0xda, 0xe2, 0xea, 0x0a, 0xff, 0x00, 0xe5, 0x1f, 0xf6, 0xf0,
  0x07, 0x28, 0xdb, 0x25, 0xf8, 0x1a, 0xeb, 0xf5, 0xc5, 0x28, 0x27, 0xe2,
  0xff, 0x16, 0xd9, 0x3c, 0x15, 0xf3, 0x2f, 0xfe, 0xd2, 0xf8, 0xea, 0x0a,
  0xc3, 0xff, 0x0c, 0x19, 0x04, 0xda, 0x07, 0x02, 0x3e, 0x13, 0x0f, 0xf6,
  0xf4, 0xe0, 0xf2, 0x0e, 0x24, 0xf5, 0xf3, 0x27, 0xf7, 0xf6, 0xf7, 0x10,
  0xd9, 0x1e, 0x01, 0x2f, 0x1c, 0x0d, 0x11, 0xed, 0xee, 0x33, 0x1a, 0xec,
  0xdb, 0x37, 0xed, 0x1c, 0x00, 0x28, 0xf1, 0x18, 0x0d, 0xfc, 0xec, 0xfd,
  0xe7, 0x2b, 0x1c, 0xf4, 0x10, 0xf8, 0xfa, 0x18, 0xf6, 0xf8, 0x23, 0x0f,
  0x0f, 0xcc, 0xf0, 0x25, 0xb6, 0xe5, 0x11, 0xe1, 0xef, 0xbf, 0x13, 0x0c,
  0x19, 0xd0, 0xf2, 0x19, 0xb6, 0x0a, 0x02, 0x0e, 0x1e, 0xf6, 0x00, 0xf2,
  0xee, 0x14, 0x49, 0xec, 0xeb, 0x22, 0x1b, 0x0c, 0x21, 0x11, 0x30, 0xf2,
  0xf1, 0xfd, 0xf5, 0xf0, 0x01, 0xf7, 0xf5, 0x02, 0x2f, 0xef, 0xfe, 0x13,
  0x1d, 0x4c, 0xe4, 0x00, 0x1d, 0x2a, 0x18, 0x1d, 0xfd, 0x13, 0xd9, 0xf6,
  0xd9, 0x07, 0xce, 0x1a, 0x42, 0xf2, 0xc3, 0x0c, 0xcd, 0x0a, 0x13, 0xc2,
  0xce, 0xb5, 0x26, 0x01, 0x25, 0xa5, 0x09, 0x09, 0xf8, 0xff, 0x27, 0xef,
  0x0a, 0xf6, 0x17, 0xe6, 0x33, 0x04, 0x66, 0xf2, 0x18, 0xe7, 0xfa, 0xe0,
  0x16, 0xfa, 0x29, 0xfc, 0xee, 0x12, 0x1b, 0xca, 0x24, 0xe2, 0xea, 0x07,
  0x0b, 0xed, 0xd8, 0xf5, 0x11, 0x10, 0x11, 0xf3, 0x2e, 0xda, 0xf0, 0xdf,
  0xf1, 0xfe, 0xf0, 0x23, 0xe4, 0x07, 0x41, 0xf3, 0xbb, 0xd2, 0xf1, 0xc5,
  0x81, 0xfd, 0xe6, 0xeb, 0xfa, 0x07, 0x14, 0x0a, 0x06, 0xf3, 0x14, 0x0f,
  0x15, 0xf5, 0x11, 0xf3, 0xeb, 0xf9, 0x09, 0x09, 0xd3, 0xfc, 0x25, 0x0a,
  0xef, 0x01, 0x14, 0x04, 0xfe, 0xee, 0x36, 0xf5, 0xeb, 0x16, 0xfd, 0x02,
  0xfb, 0x02, 0x00, 0x11, 0xe0, 0xdd, 0xdd, 0xf0, 0xfd, 0x4e, 0x02, 0xf5,
  0x35, 0xde, 0x0c, 0xef, 0xfa, 0xe5, 0xe1, 0x1c, 0x10, 0xfb, 0x31, 0xef,
  0xbe, 0xd9, 0xf3, 0xb2, 0xaf, 0xec, 0xe2, 0xe6, 0x02, 0x06, 0x1d, 0x01,
  0x07, 0xde, 0xef, 0x1d, 0xf5, 0xfe, 0x27, 0x04, 0xed, 0xf6, 0x1e, 0x1e,
  0xf0, 0xe6, 0x01, 0x08, 0x20, 0xef, 0xff, 0xeb, 0xe1, 0xf8, 0x3a, 0x14,
  0xfd, 0xe5, 0x04, 0xfc, 0x1a, 0xe6, 0xfe, 0xd0, 0xe9, 0x0e, 0xb9, 0x08,
  0x12, 0xd5, 0xff, 0xfe, 0x05, 0xee, 0x04, 0xe2, 0x03, 0xfe, 0xed, 0x21,
  0xee, 0x06, 0x3c, 0xee, 0x02, 0xef, 0x2d, 0xdc, 0xae, 0xf9, 0xfc, 0x24,
  0xfa, 0x1c, 0x2b, 0x04, 0x08, 0xf0, 0xf4, 0xfb, 0xe3, 0xf9, 0x71, 0xfa,
  0x01, 0xf9, 0xfc, 0x15, 0xf8, 0x01, 0xe4, 0x09, 0x26, 0xd4, 0x18, 0xe5,
  0xf4, 0xef, 0x06, 0x06, 0x07, 0x18, 0x09, 0xe4, 0x0d, 0x20, 0xfe, 0x12,
  0x3e, 0xf8, 0xfc, 0x09, 0xfb, 0x0c, 0x1d, 0xf7, 0xd8, 0x0b, 0x02, 0x0b,
  0xfb, 0x0e, 0x0b, 0xec, 0xe8, 0x00, 0xe6, 0xed, 0xbd, 0x24, 0xff, 0xee,
  0x08, 0x02, 0xe5, 0x04, 0x09, 0x01, 0xfa, 0x0d, 0xf3, 0xe6, 0x36, 0xfd,
  0x06, 0x05, 0x13, 0x10, 0xf2, 0xfb, 0x16, 0xeb, 0xfb, 0xf8, 0x23, 0x0a,
  0x11, 0xe3, 0x06, 0xe1, 0x03, 0x02, 0x28, 0x0a, 0xf3, 0xff, 0x05, 0xfa,
  0x05, 0xef, 0x0b, 0x0e, 0x01, 0xc5, 0xf7, 0x24, 0x01, 0x1d, 0x0f, 0x0e,
  0xd8, 0x11, 0x00, 0x22, 0x1a, 0xf0, 0xfa, 0x06, 0xe9, 0xfe, 0xf3, 0xf3,
  0xd4, 0x23, 0xf3, 0xd7, 0x00, 0xf5, 0xf7, 0xfd, 0xfd, 0x0c, 0x1a, 0x03,
  0xff, 0xef, 0x26, 0x05, 0xfb, 0x00, 0x17, 0x00, 0xfe, 0xfe, 0x13, 0xed,
  0x0c, 0xfa, 0x03, 0x1b, 0x2c, 0xde, 0x10, 0xec, 0xf0, 0xff, 0x1b, 0x17,
  0x01, 0x0a, 0xfb, 0x05, 0x01, 0x08, 0xf1, 0xec, 0xfa, 0x16, 0xf4, 0x17,
  0xef, 0xdf, 0x0f, 0xe3, 0xb9, 0xfb, 0xfe, 0x17, 0x2b, 0x03, 0xed, 0xf7,
  0xf1, 0xea, 0x08, 0xeb, 0xf6, 0x33, 0x28, 0xec, 0xfe, 0xfc, 0xf0, 0xdf,
  0xef, 0x12, 0x08, 0x0d, 0xf8, 0xf5, 0x1a, 0xff, 0xf3, 0xee, 0xff, 0x03,
  0xfd, 0x10, 0x08, 0xed, 0x21, 0x03, 0xe8, 0x0d, 0xf2, 0xe7, 0xf3, 0xeb,
  0x15, 0x1e, 0xfd, 0x03, 0x10, 0x0f, 0xfa, 0x0a, 0xf3, 0xfe, 0x35, 0x1e,
  0x4f, 0xfb, 0x07, 0xe5, 0xfe, 0x1c, 0x17, 0x5a, 0x06, 0x10, 0xec, 0x02,
  0xfc, 0x0f, 0x19, 0xf9, 0xf7, 0x0a, 0xf4, 0x0c, 0x23, 0xec, 0x2b, 0x07,
  0xf8, 0x1c, 0xec, 0x32, 0x17, 0xed, 0xfe, 0xfa, 0x0e, 0xf0, 0x03, 0xf8,
  0xeb, 0x0a, 0x04, 0xf3, 0x02, 0x0a, 0x00, 0x00, 0xf4, 0x0d, 0xeb, 0x15,
  0x0d, 0xef, 0xed, 0xf8, 0xf3, 0x16, 0x16, 0x15, 0x15, 0xfe, 0xf0, 0x0e,
  0x13, 0xec, 0x23, 0x16, 0x04, 0xf5, 0xee, 0xed, 0xf5, 0xe5, 0x05, 0x16,
  0xe8, 0x13, 0xcf, 0xff, 0x14, 0xf6, 0x0f, 0xfe, 0xf2, 0xfd, 0xf2, 0x16,
  0x12, 0xd9, 0xe7, 0x0b, 0x14, 0xf8, 0xf5, 0x1a, 0xf7, 0xef, 0x1e, 0xf7,
  0x07, 0xf6, 0x09, 0xff, 0x07, 0x00, 0xe6, 0x0b, 0xf5, 0x0f, 0x06, 0xdb,
  0x07, 0x06, 0x10, 0xf6, 0x07, 0xe8, 0xf0, 0xfd, 0x0f, 0x01, 0xe0, 0x02,
  0x19, 0x13, 0x0e, 0x22, 0x02, 0x1f, 0x0c, 0x07, 0x19, 0x13, 0xe5, 0xf5,
  0x0c, 0xef, 0x15, 0xea, 0xeb, 0x13, 0xc9, 0x0c, 0x22, 0x0e, 0xf8, 0xfe,
  0x02, 0xeb, 0xec, 0x04, 0xe3, 0xde, 0x20, 0x29, 0x16, 0xf7, 0xf7, 0x05,
  0xfe, 0xf4, 0x00, 0xfa, 0xfb, 0x00, 0x08, 0xf7, 0xd6, 0x0a, 0xf1, 0xf9,
  0x08, 0x0c, 0x02, 0xeb, 0x21, 0xf6, 0xfb, 0x05, 0x0c, 0x30, 0x22, 0xf8,
  0xf1, 0xfd, 0xee, 0xef, 0x0d, 0xf4, 0x09, 0x05, 0xe6, 0x16, 0x0b, 0x2d,
  0xfa, 0xf5, 0x18, 0x01, 0xf8, 0x12, 0xff, 0xcc, 0x0d, 0x01, 0x0d, 0xc8,
  0x0e, 0x27, 0x1b, 0xdd, 0x14, 0x1e, 0x0b, 0x00, 0x15, 0x1a, 0xef, 0xf4,
  0xe9, 0x07, 0x18, 0xff, 0xf9, 0x03, 0xec, 0x4f, 0xe2, 0x17, 0x30, 0x0c,
  0xd9, 0xed, 0xdf, 0xdc, 0x02, 0xee, 0xef, 0x11, 0x10, 0x13, 0xc2, 0xfa,
  0xe4, 0x07, 0x01, 0x12, 0x23, 0xfe, 0x0e, 0x13, 0x07, 0x0d, 0x27, 0x14,
  0xf9, 0xf5, 0x07, 0xfd, 0x0d, 0x16, 0x23, 0x25, 0x0e, 0x07, 0x0f, 0xcc,
  0xe6, 0xf7, 0xff, 0xf9, 0x27, 0x08, 0xdf, 0xeb, 0x00, 0xd8, 0xfb, 0xfd,
  0x1a, 0x02, 0x0a, 0xe5, 0xe9, 0x10, 0x0b, 0xf2, 0xe1, 0xe2, 0xfd, 0x01,
  0xed, 0xf8, 0x14, 0x04, 0xd8, 0x12, 0x09, 0x07, 0xdf, 0x04, 0xdc, 0xf3,
  0x1b, 0x11, 0xbe, 0x18, 0xc9, 0xf0, 0xe1, 0x0d, 0x08, 0x07, 0x14, 0x01,
  0x17, 0x1e, 0x24, 0x0c, 0x08, 0x05, 0x21, 0xcf, 0x31, 0x0d, 0x17, 0xf7,
  0xf5, 0xe6, 0x1e, 0x27, 0xfc, 0x0a, 0xed, 0x08, 0x11, 0xf0, 0xbd, 0x28,
  0xcf, 0xeb, 0x1a, 0xff, 0xe2, 0x74, 0x17, 0x06, 0x21, 0x05, 0xf4, 0x0d,
  0xfd, 0x0b, 0x2a, 0x0a, 0xf7, 0xff, 0x19, 0x03, 0x2e, 0x07, 0x28, 0x52,
  0x03, 0xd4, 0x1c, 0x05, 0xf5, 0xf5, 0x06, 0x0b, 0x1d, 0x2d, 0x08, 0x0a,
  0xf6, 0x0c, 0xe6, 0xf3, 0x07, 0x10, 0x17, 0x05, 0xf0, 0x04, 0x06, 0x26,
  0x46, 0xf4, 0x0b, 0x2e, 0xe1, 0xfd, 0x0e, 0x0f, 0xdc, 0x0c, 0x0a, 0x16,
  0x07, 0x0a, 0xdc, 0xf3, 0x11, 0x13, 0xf6, 0xf7, 0x0a, 0x14, 0x12, 0xfb,
  0xe2, 0x03, 0x07, 0xf9, 0x14, 0xe3, 0xd8, 0x0d, 0x00, 0x22, 0x1b, 0x1e,
  0x08, 0xe7, 0xf9, 0xe0, 0x19, 0x0b, 0xf6, 0x0d, 0x1b, 0x0f, 0xc0, 0x1e,
  0xfb, 0x17, 0xe8, 0x14, 0x17, 0xf4, 0x10, 0x0d, 0xfe, 0xf8, 0x18, 0x21,
  0xe6, 0x01, 0xf6, 0xec, 0x06, 0x07, 0xfc, 0x0d, 0x1f, 0x09, 0x37, 0xda,
  0xf0, 0x0a, 0x18, 0x0f, 0x27, 0x0a, 0x81, 0x1e, 0x0a, 0xf6, 0x00, 0xf6,
  0x1a, 0xcd, 0x00, 0x0a, 0xec, 0x0a, 0xf7, 0xfc, 0xee, 0xd8, 0xeb, 0xf8,
  0x0b, 0x14, 0x02, 0x10, 0xf4, 0xfe, 0xfc, 0x12, 0x0c, 0x1e, 0xf4, 0xfb,
  0x04, 0x24, 0xed, 0xf5, 0xf7, 0xda, 0xf9, 0xf7, 0xff, 0x00, 0x16, 0xee,
  0xff, 0x06, 0x1d, 0xf6, 0x18, 0x07, 0x21, 0xda, 0x14, 0x0e, 0xf2, 0xe4,
  0xfe, 0x09, 0x3f, 0x13, 0xdb, 0x09, 0xea, 0x00, 0x05, 0xd5, 0x9b, 0x31,
  0xf8, 0xf3, 0x18, 0xf5, 0xe8, 0x2d, 0x26, 0x11, 0x19, 0xf6, 0x01, 0x14,
  0x22, 0xf1, 0x0f, 0x00, 0x10, 0x11, 0x00, 0xe3, 0x12, 0x0a, 0x0f, 0x31,
  0x06, 0xef, 0x07, 0x00, 0x15, 0xf5, 0x1c, 0xe7, 0x14, 0x38, 0x27, 0x00,
  0xdf, 0x03, 0xd0, 0x13, 0x0d, 0x25, 0x00, 0x17, 0xe5, 0x1d, 0x1d, 0x1d,
  0x56, 0x12, 0x12, 0x02, 0xf8, 0x22, 0x1a, 0x32, 0xa4, 0x17, 0x16, 0x0b,
  0xef, 0xfe, 0xed, 0x06, 0x10, 0x08, 0xf5, 0xff, 0x02, 0x02, 0x01, 0xcd,
  0x15, 0xe7, 0xdc, 0x0a, 0x06, 0xe9, 0x0c, 0x1f, 0x20, 0x01, 0x39, 0x2a,
  0x1a, 0xea, 0x0d, 0xdb, 0x2e, 0x1f, 0xf7, 0x14, 0xe9, 0xfe, 0xe1, 0x05,
  0x31, 0x00, 0x09, 0xda, 0x10, 0x0e, 0x05, 0x23, 0xf2, 0xf8, 0xf2, 0x09,
  0xfc, 0xf9, 0xfb, 0x01, 0x02, 0x07, 0xf1, 0x16, 0xfd, 0xf7, 0x01, 0xff,
  0xf4, 0x0a, 0x08, 0x12, 0x1c, 0x02, 0x01, 0x13, 0x19, 0xeb, 0xfc, 0xf4,
  0xff, 0x15, 0x00, 0xf4, 0xdc, 0xfd, 0xe9, 0x3a, 0xf7, 0xe2, 0x10, 0xf4,
  0x04, 0x19, 0xf5, 0x29, 0x17, 0xfe, 0x0e, 0x14, 0x1c, 0x0b, 0xf3, 0xe6,
  0xf0, 0x18, 0xf4, 0xed, 0x0c, 0x04, 0x06, 0xeb, 0xed, 0xfe, 0x29, 0xf4,
  0xea, 0x05, 0xfe, 0xf3, 0xfe, 0xea, 0x09, 0xfb, 0x05, 0xec, 0xde, 0x0b,
  0x06, 0x29, 0x07, 0x05, 0x01, 0x0b, 0xe5, 0xf2, 0x04, 0xea, 0x1d, 0x1b,
  0xfc, 0xfb, 0x2f, 0xfd, 0xf5, 0xfd, 0x2d, 0xf5, 0x07, 0xf3, 0xfd, 0x41,
  0x20, 0xcd, 0x0c, 0xfc, 0x00, 0x01, 0xfb, 0xe5, 0xef, 0xef, 0x0e, 0x23,
  0x0a, 0xef, 0x04, 0x0c, 0xfd, 0x08, 0x1c, 0xfe, 0x27, 0x0b, 0xe8, 0xe8,
  0x19, 0xff, 0x11, 0xce, 0x20, 0xd5, 0xfb, 0x2b, 0x28, 0x01, 0x01, 0xf4,
  0xd5, 0xfe, 0xe0, 0xbe, 0x24, 0xe4, 0xf3, 0x29, 0x06, 0xf5, 0xf5, 0x01,
  0x08, 0x0a, 0x08, 0xff, 0xd7, 0x00, 0xf9, 0x0f, 0xde, 0xe7, 0x14, 0xde,
  0xfe, 0x2a, 0x0d, 0xff, 0xf6, 0x2b, 0xe8, 0x9e, 0x00, 0xe4, 0xfc, 0xe3,
  0xf5, 0x32, 0x09, 0x13, 0xeb, 0x28, 0x19, 0x0d, 0xf3, 0xed, 0x3b, 0xf0,
  0x24, 0xec, 0xe4, 0xda, 0xf7, 0x0f, 0x16, 0x11, 0x1e, 0xc6, 0x19, 0xea,
  0x16, 0xe0, 0xfb, 0x0d, 0xe9, 0x0c, 0x11, 0xcd, 0x23, 0xb6, 0xfc, 0x3f,
  0x1e, 0x00, 0xc9, 0x29, 0x13, 0x04, 0x03, 0x0e, 0xec, 0x08, 0x16, 0x06,
  0xe6, 0xe9, 0x2b, 0xdd, 0xe7, 0x39, 0x01, 0x20, 0x19, 0x34, 0xda, 0xa0,
  0x06, 0xf8, 0x19, 0x07, 0xf5, 0x1c, 0x22, 0x09, 0xfb, 0x26, 0x38, 0xf3,
  0x01, 0xba, 0x33, 0xf5, 0x2e, 0xcf, 0xd7, 0xd5, 0x07, 0x00, 0x0b, 0x37,
  0x0a, 0x07, 0xfc, 0x16, 0x12, 0x01, 0x3d, 0xf0, 0x1b, 0x02, 0x04, 0xea,
  0xfa, 0xb5, 0x05, 0x3c, 0x16, 0x02, 0xc6, 0x25, 0x12, 0x1c, 0x29, 0xeb,
  0xf7, 0xe7, 0xf4, 0x08, 0xf2, 0x05, 0x71, 0xe1, 0xe5, 0x37, 0xde, 0x10,
  0x4c, 0x3c, 0xf0, 0xb6, 0xde, 0xf1, 0x0d, 0xe2, 0x16, 0x42, 0x36, 0x0b,
  0xd8, 0x28, 0x32, 0xea, 0x25, 0xd9, 0x33, 0x00, 0xf9, 0x02, 0xde, 0xfc,
  0x06, 0x01, 0x07, 0x02, 0x12, 0xd9, 0x1e, 0x1c, 0xf3, 0xe6, 0x28, 0x0f,
  0xdb, 0x23, 0x07, 0xf2, 0x13, 0xdf, 0xe3, 0x5a, 0x0b, 0x2a, 0xfc, 0xe5,
  0x0e, 0xe6, 0xf7, 0x05, 0xe2, 0x04, 0xe2, 0xec, 0x04, 0xd7, 0xf2, 0x03,
  0x2e, 0x24, 0xfd, 0xeb, 0xe4, 0xf7, 0x22, 0xf6, 0xfc, 0xe6, 0xf7, 0xef,
  0x1e, 0x0a, 0x09, 0x1c, 0xd7, 0x0b, 0x22, 0x0b, 0x2e, 0xf1, 0x21, 0x18,
  0x0c, 0xd5, 0xe7, 0xfc, 0x0f, 0x10, 0xfe, 0xdc, 0x0e, 0xcb, 0x09, 0x10,
  0x0d, 0xd1, 0x29, 0xed, 0xe0, 0xe2, 0x10, 0xcd, 0x14, 0xc7, 0xed, 0x1c,
  0x15, 0x0a, 0x08, 0xf5, 0xf2, 0xf5, 0x18, 0xea, 0xf2, 0xed, 0xd5, 0x10,
  0x08, 0xcd, 0xe2, 0xf3, 0xfa, 0x10, 0xed, 0xeb, 0x06, 0x0a, 0x12, 0xd1,
  0x19, 0xec, 0x0b, 0xc3, 0x00, 0x1a, 0xf0, 0x27, 0xea, 0x10, 0x29, 0x03,
  0x30, 0xd8, 0x08, 0x26, 0x01, 0xc9, 0xd0, 0xea, 0x15, 0xfa, 0x1b, 0xe2,
  0x2f, 0x05, 0x0a, 0x1c, 0x03, 0xf7, 0x2e, 0xf3, 0xf5, 0xe1, 0x28, 0xb4,
  0x2b, 0xd4, 0x08, 0xf8, 0x1b, 0x04, 0x13, 0xfa, 0xfd, 0x1d, 0x10, 0xe3,
  0x22, 0xe0, 0xf4, 0x18, 0x00, 0xcd, 0xf8, 0x0e, 0xf4, 0x41, 0xd5, 0x05,
  0x57, 0x03, 0x27, 0x81, 0xed, 0xfa, 0x18, 0xc2, 0xf3, 0x18, 0xdc, 0x1a,
  0xfd, 0x06, 0x50, 0x0e, 0x43, 0xb3, 0x28, 0x0b, 0xf9, 0x0f, 0xe7, 0x01,
  0xdc, 0x19, 0xf8, 0x02, 0x1d, 0xec, 0x25, 0xd8, 0xd7, 0x05, 0x06, 0xfa,
  0xea, 0x1a, 0x0f, 0x26, 0x10, 0xf4, 0x0c, 0x38, 0xf5, 0xf6, 0x04, 0x04,
  0x10, 0x2f, 0x09, 0xee, 0xdc, 0xef, 0x00, 0x31, 0x22, 0x18, 0x21, 0xf1,
  0x0f, 0x0a, 0x03, 0xec, 0x08, 0x27, 0x1d, 0xf2, 0xf1, 0xf6, 0x2d, 0x11,
  0xf8, 0x0f, 0xdf, 0x14, 0xea, 0x04, 0x19, 0xe8, 0x08, 0xe7, 0x0d, 0x06,
  0xde, 0xd8, 0xd8, 0x12, 0xff, 0xf2, 0x04, 0xfc, 0x2d, 0x07, 0x19, 0xcd,
  0x07, 0x1b, 0x3f, 0x05, 0x0d, 0xac, 0x13, 0x3d, 0xff, 0x1f, 0x19, 0x18,
  0x1f, 0x0c, 0x15, 0x23, 0x06, 0x26, 0x0a, 0xf8, 0xed, 0xfe, 0xff, 0x0b,
  0x14, 0x29, 0xec, 0x08, 0xe8, 0x05, 0xda, 0xc3, 0x38, 0x22, 0x04, 0x02,
  0x0c, 0xfe, 0x33, 0xd9, 0x08, 0x07, 0xed, 0x28, 0xfd, 0x24, 0x43, 0x16,
  0xff, 0xd5, 0xf5, 0x06, 0xef, 0xb8, 0xf7, 0x01, 0xf4, 0xff, 0x0a, 0xef,
  0x74, 0x09, 0x14, 0xeb, 0xf9, 0x28, 0x51, 0xed, 0x0b, 0x8a, 0x34, 0x58,
  0x2e, 0xe1, 0x1a, 0xf0, 0x0d, 0x17, 0x1b, 0xfe, 0xdf, 0x0f, 0xfa, 0xfe,
  0xf8, 0xfa, 0x1a, 0x22, 0xd8, 0x27, 0xe2, 0xec, 0xde, 0x0e, 0xed, 0xcd,
  0x28, 0x39, 0x02, 0xf1, 0x10, 0xd6, 0xf6, 0xee, 0x01, 0x15, 0xe4, 0x12,
  0xf9, 0x01, 0x40, 0x05, 0xfa, 0xb1, 0xf2, 0x12, 0xb6, 0xfa, 0x0b, 0x22,
  0x14, 0x17, 0xff, 0xcb, 0xed, 0x11, 0xda, 0xec, 0xa2, 0x21, 0xd1, 0xd4,
  0x2a, 0x29, 0xf4, 0xd3, 0xdd, 0x6f, 0xf9, 0x12, 0x10, 0x23, 0x13, 0xf0,
  0x28, 0x30, 0x0d, 0x3b, 0xd8, 0xe1, 0x02, 0x33, 0x3e, 0xf3, 0x0b, 0x57,
  0x01, 0x16, 0x20, 0xf7, 0xfd, 0x00, 0xc5, 0xca, 0x42, 0x03, 0x04, 0x7f,
  0x0f, 0x1b, 0xea, 0xe9, 0x2f, 0x3e, 0xe6, 0xf6, 0x48, 0x20, 0xdb, 0xfc,
  0xe6, 0xed, 0x01, 0x30, 0x12, 0x0e, 0xc6, 0x01, 0x09, 0xe7, 0xdd, 0x12,
  0x0f, 0xfd, 0x0e, 0xe7, 0x45, 0x11, 0xf1, 0xff, 0xe4, 0xe8, 0xf3, 0x1b,
  0x2f, 0xf8, 0x0a, 0xec, 0xee, 0xdd, 0x2f, 0x09, 0x0c, 0xf3, 0xfe, 0x01,
  0x09, 0xeb, 0xe9, 0x1d, 0x0f, 0x09, 0x1f, 0x02, 0xf2, 0xfd, 0x38, 0xdc,
  0x03, 0x25, 0xfd, 0x35, 0x35, 0xf2, 0xe2, 0xf9, 0x4e, 0x0c, 0xef, 0x33,
  0x1e, 0x2a, 0x43, 0xe3, 0x07, 0xf4, 0x0e, 0x03, 0x10, 0x0e, 0xd3, 0x0b,
  0x32, 0xfe, 0xca, 0x17, 0x0b, 0xf2, 0x2f, 0xf5, 0x10, 0xed, 0x1d, 0x16,
  0x15, 0x0f, 0xea, 0x30, 0x38, 0xf0, 0xfb, 0xe1, 0xfb, 0xd7, 0x31, 0xf3,
  0x0e, 0x0d, 0x2c, 0xed, 0xeb, 0xf5, 0xde, 0x21, 0x08, 0x01, 0x19, 0xda,
  0x31, 0x06, 0x60, 0x03, 0x00, 0x2c, 0xdc, 0xb4, 0x21, 0xf4, 0xc5, 0xe7,
  0x3e, 0xd4, 0xf7, 0x45, 0xa7, 0xe4, 0x32, 0xe3, 0xc1, 0xeb, 0x0b, 0x2b,
  0x34, 0xf8, 0xe9, 0xe7, 0xd1, 0x24, 0x00, 0xe9, 0xcb, 0x11, 0xcd, 0xec,
  0xed, 0x07, 0xb1, 0xf4, 0x02, 0x27, 0xe8, 0xbe, 0x84, 0x1f, 0x07, 0x11,
  0x24, 0x36, 0xed, 0x45, 0xfc, 0xfa, 0x2f, 0x38, 0x21, 0x3e, 0x30, 0xdc,
  0xe4, 0x12, 0x0f, 0x7f, 0xd0, 0xdf, 0xcf, 0xf8, 0xfa, 0xf7, 0x0f, 0x4a,
  0xe6, 0xf9, 0x17, 0xf6, 0x45, 0x19, 0x02, 0x37, 0x13, 0x18, 0x26, 0xf5,
  0xd7, 0xf2, 0xfb, 0x28, 0x3d, 0xe9, 0xe5, 0x09, 0xe4, 0x08, 0x07, 0x01,
  0xf1, 0xe0, 0x05, 0x0d, 0x09, 0xe3, 0xc6, 0xf8, 0x2a, 0xad, 0xeb, 0xf9,
  0xb6, 0x07, 0xfb, 0x1c, 0xd3, 0x0c, 0xdb, 0x2f, 0xff, 0xfe, 0x0f, 0xff,
  0x07, 0xf2, 0x3e, 0xf7, 0x04, 0x00, 0x04, 0x4f, 0xf0, 0xe3, 0x08, 0x0e,
  0xff, 0x1e, 0xff, 0xfe, 0x11, 0x0b, 0x0c, 0xf5, 0x25, 0xfa, 0x04, 0x34,
  0x31, 0x1f, 0x28, 0x26, 0xe9, 0xe8, 0x1c, 0x0e, 0x32, 0x00, 0xfb, 0x3d,
  0xfe, 0x0e, 0xe7, 0xea, 0x3c, 0x0a, 0x03, 0x01, 0xf3, 0xcb, 0xd5, 0x2b,
  0x20, 0x10, 0xd9, 0xfe, 0xd1, 0x07, 0xdb, 0x10, 0x00, 0xe7, 0xe5, 0xfa,
  0x08, 0xf8, 0xf1, 0xea, 0xf7, 0xf4, 0x49, 0xfd, 0x05, 0xf8, 0xf7, 0x12,
  0x32, 0xec, 0x1b, 0x09, 0x09, 0x20, 0xe0, 0xfa, 0x1b, 0xee, 0x3f, 0x0f,
  0x11, 0x04, 0x02, 0x30, 0xd2, 0xed, 0xe8, 0xf5, 0xc3, 0xd8, 0xf0, 0x47,
  0xe9, 0x05, 0xef, 0xc2, 0xfb, 0x19, 0xc0, 0x10, 0x0a, 0x07, 0xcf, 0xf2,
  0xe5, 0x18, 0x98, 0xfa, 0x08, 0xf5, 0xe8, 0xc1, 0xe9, 0x0b, 0x05, 0xd7,
  0x0c, 0x0d, 0xde, 0x3b, 0xf4, 0xf5, 0x0e, 0x0d, 0xe8, 0xef, 0x0a, 0xe7,
  0x01, 0xf3, 0x0c, 0x1c, 0xd2, 0x22, 0xc0, 0xed, 0xde, 0x18, 0xf8, 0xf0,
  0xea, 0x08, 0x3e, 0xff, 0x00, 0xfd, 0x03, 0x54, 0x04, 0x20, 0x4e, 0x17,
  0xe0, 0xf5, 0xee, 0x24, 0x04, 0x0f, 0xc8, 0xd4, 0xf6, 0xe8, 0xda, 0xf5,
  0x22, 0x07, 0x03, 0xdc, 0x21, 0x0b, 0xc4, 0x0a, 0x07, 0xaf, 0x05, 0xd8,
  0xfa, 0x14, 0x05, 0x05, 0x0b, 0x0e, 0xd8, 0x1d, 0xe3, 0xde, 0xfe, 0xfe,
  0xfd, 0xf7, 0xf9, 0xff, 0xee, 0xfb, 0x0e, 0x3b, 0xf5, 0x0e, 0xe5, 0xde,
  0x07, 0x27, 0xed, 0xe4, 0xfe, 0x03, 0x52, 0xf2, 0xfc, 0x09, 0xec, 0x2f,
  0x10, 0x16, 0xd0, 0x0e, 0xd6, 0xe3, 0x0b, 0x1d, 0x20, 0x08, 0x01, 0xf8,
  0x08, 0x12, 0xe0, 0xdb, 0x47, 0x1a, 0xf2, 0x17, 0x0b, 0xcf, 0xf0, 0xe4,
  0x04, 0x18, 0xfb, 0x10, 0x20, 0x01, 0xec, 0xfe, 0x13, 0xfa, 0xe4, 0x10,
  0x18, 0xea, 0x27, 0xe9, 0xe8, 0xee, 0x25, 0xf2, 0xd6, 0x17, 0xfd, 0x08,
  0x06, 0x29, 0x07, 0xf5, 0x16, 0x15, 0xe1, 0xe7, 0xee, 0xf4, 0x62, 0x12,
  0x07, 0x13, 0x16, 0xf9, 0xe6, 0x0d, 0xe6, 0x10, 0x13, 0x02, 0x0c, 0xe7,
  0x13, 0xf2, 0x2e, 0xdd, 0xd6, 0x00, 0x38, 0xfe, 0x01, 0xfa, 0xdb, 0xe5,
  0xe1, 0xf2, 0xd5, 0xf6, 0x2b, 0x18, 0xd5, 0xe4, 0xeb, 0x03, 0x0c, 0x03,
  0x40, 0x25, 0x15, 0x1b, 0xb4, 0xd0, 0xd2, 0x12, 0xf8, 0xfe, 0xda, 0xf4,
  0x17, 0x08, 0x16, 0x25, 0xe3, 0x0e, 0xfa, 0x12, 0x38, 0xf4, 0x38, 0xf6,
  0x11, 0x01, 0xf9, 0x32, 0xe3, 0xf8, 0x1e, 0xbb, 0x18, 0xe9, 0xee, 0xeb,
  0xfc, 0xcc, 0xff, 0xf6, 0x0a, 0x13, 0x03, 0x30, 0x12, 0xb4, 0x1c, 0x17,
  0xfe, 0xfe, 0x03, 0xd2, 0x06, 0xc0, 0xe9, 0x15, 0x05, 0xee, 0xf1, 0x11,
  0x24, 0x07, 0xfc, 0x22, 0xf0, 0xef, 0xfe, 0x22, 0x22, 0x01, 0xf7, 0xf6,
  0x19, 0xff, 0xf7, 0xfa, 0x04, 0x00, 0x0e, 0xe9, 0x06, 0x11, 0x26, 0xfe,
  0x12, 0x01, 0x22, 0x0d, 0x04, 0xfe, 0xd2, 0x47, 0x0b, 0xf8, 0x1e, 0xfc,
  0x0e, 0x16, 0x39, 0x0b, 0x1e, 0xb0, 0xfc, 0xfd, 0x02, 0xfb, 0x07, 0xf3,
  0x2e, 0xf5, 0x21, 0x1f, 0xf8, 0x33, 0x33, 0xf7, 0xeb, 0xdc, 0xff, 0x01,
  0x1f, 0xec, 0xf7, 0xf9, 0x20, 0x16, 0x00, 0x01, 0xee, 0xf3, 0x12, 0x09,
  0x24, 0x10, 0xf7, 0x01, 0xec, 0xc4, 0xe8, 0xfe, 0x01, 0xff, 0x0c, 0x00,
  0x1a, 0x30, 0x04, 0x06, 0x20, 0xe3, 0x11, 0xb8, 0x0b, 0x0f, 0xd6, 0x02,
  0x0f, 0xf4, 0x35, 0xf3, 0xfa, 0xc2, 0x53, 0xff, 0xfd, 0x0c, 0x06, 0xe3,
  0xe9, 0x0b, 0x3e, 0xe5, 0xc9, 0x09, 0x23, 0xe8, 0xfc, 0xf5, 0xd7, 0x05,
  0xf2, 0xf4, 0xdf, 0xfb, 0xf9, 0xfd, 0xff, 0xf6, 0xf1, 0xfe, 0x0e, 0x01,
  0x45, 0x12, 0xf9, 0x0a, 0xa6, 0xd6, 0x0d, 0x0b, 0x0c, 0x12, 0x0c, 0x10,
  0x08, 0x08, 0x0b, 0x18, 0xea, 0x0c, 0xe4, 0xfd, 0x22, 0xda, 0x0c, 0xea,
  0xfd, 0x03, 0x2d, 0x34, 0xfd, 0x0a, 0x09, 0xa1, 0x0c, 0xf8, 0xfd, 0xf7,
  0xdb, 0xcb, 0x10, 0x09, 0xf1, 0xfa, 0x1b, 0x18, 0x12, 0xd9, 0x1b, 0x0e,
  0x10, 0xf7, 0x0f, 0xcf, 0xff, 0xc6, 0xf9, 0x08, 0xf6, 0xcd, 0x06, 0x01,
  0x1d, 0xfb, 0x06, 0x00, 0xfa, 0xf4, 0xe8, 0x18, 0xef, 0x05, 0x0b, 0xeb,
  0x13, 0x16, 0x18, 0x05, 0xee, 0xf3, 0x02, 0xf5, 0xfc, 0x0a, 0x0a, 0xf7,
  0x0a, 0xdd, 0xfc, 0xf7, 0x17, 0xfd, 0x02, 0x33, 0xf7, 0xfe, 0x18, 0xe0,
  0xfe, 0xec, 0x2c, 0x00, 0x0e, 0xc9, 0x0b, 0x25, 0xee, 0x06, 0xe7, 0x0c,
  0x13, 0xec, 0x0e, 0x01, 0x0d, 0x1f, 0x10, 0xe6, 0x1a, 0xf1, 0x08, 0x18,
  0x04, 0xfa, 0x04, 0xf1, 0x1f, 0x0f, 0x18, 0x10, 0xea, 0x0a, 0xf6, 0xfc,
  0xf7, 0x0f, 0xe6, 0xe9, 0xf4, 0x18, 0xf5, 0x04, 0x01, 0xfc, 0x02, 0xe0,
  0x0b, 0x09, 0x00, 0x09, 0x16, 0xf7, 0xfe, 0xf9, 0x06, 0x0f, 0xf9, 0x17,
  0x0e, 0x05, 0x33, 0xfc, 0xe4, 0xb6, 0x1e, 0x14, 0xef, 0x19, 0x01, 0x00,
  0xe6, 0xf7, 0x53, 0xe3, 0xda, 0xf1, 0xfc, 0xc3, 0xfc, 0xf1, 0xde, 0x0d,
  0xf7, 0xd3, 0xfd, 0xe6, 0xef, 0x21, 0xef, 0x01, 0x04, 0xd9, 0x0f, 0xe5,
  0x30, 0x0d, 0x05, 0xec, 0x81, 0xf6, 0x2f, 0x0a, 0xed, 0x04, 0x35, 0x0c,
  0xfd, 0x09, 0x06, 0xf7, 0xe6, 0x0c, 0x02, 0x0c, 0x0f, 0xbd, 0xf8, 0xe2,
  0xcc, 0xfc, 0xf7, 0x15, 0xf6, 0xec, 0x02, 0xb0, 0x06, 0x01, 0xd6, 0xfd,
  0xd4, 0xc2, 0x02, 0x15, 0xfa, 0xf9, 0xfc, 0x21, 0x1b, 0xfd, 0xf9, 0x24,
  0x0f, 0xe3, 0x05, 0xe7, 0x06, 0xd3, 0x10, 0x0d, 0x04, 0xc5, 0x0c, 0xfe,
  0x17, 0xeb, 0x01, 0xf3, 0x02, 0xf2, 0x0b, 0xfb, 0xd4, 0x04, 0x0c, 0xe9,
  0x0d, 0x09, 0xeb, 0xfc, 0xe8, 0x04, 0x0c, 0xef, 0xff, 0xf9, 0x21, 0xf4,
  0xfa, 0xdc, 0xf3, 0xeb, 0xea, 0xff, 0xd9, 0x1f, 0x01, 0xf5, 0x11, 0xe4,
  0xf4, 0xfe, 0x20, 0x05, 0xf7, 0xee, 0xf8, 0x18, 0x00, 0x16, 0xe3, 0x0a,
  0x25, 0xea, 0xf0, 0xf9, 0xef, 0x25, 0x1f, 0xff, 0x31, 0xf8, 0x1b, 0xf4,
  0xf5, 0x0a, 0xfa, 0x00, 0x17, 0x00, 0xfc, 0xf2, 0xeb, 0xfd, 0x0d, 0x01,
  0xdd, 0x24, 0xe2, 0xe1, 0xe7, 0xf6, 0xab, 0x03, 0x34, 0x01, 0x14, 0xe8,
  0x13, 0xf2, 0xfd, 0x05, 0x11, 0x01, 0xe9, 0xfa, 0x37, 0xf8, 0xd5, 0xf7,
  0x01, 0xf6, 0x11, 0x1c, 0xf5, 0xf4, 0x16, 0xf5, 0xc0, 0xcb, 0xff, 0xff,
  0xc4, 0xcb, 0xff, 0xff, 0xca, 0xef, 0xff, 0xff, 0x04, 0x00, 0x00, 0x00,
  0x40, 0x00, 0x00, 0x00, 0x00, 0x00, 0x00, 0x00, 0x00, 0x00, 0x00, 0x00,
  0x00, 0x00, 0x00, 0x00, 0x00, 0x00, 0x00, 0x00, 0x00, 0x00, 0x00, 0x00,
  0x00, 0x00, 0x00, 0x00, 0x00, 0x00, 0x00, 0x00, 0x00, 0x00, 0x00, 0x00,
  0x00, 0x00, 0x00, 0x00, 0x00, 0x00, 0x00, 0x00, 0x00, 0x00, 0x00, 0x00,
  0x00, 0x00, 0x00, 0x00, 0x00, 0x00, 0x00, 0x00, 0x00, 0x00, 0x00, 0x00,
  0x00, 0x00, 0x00, 0x00, 0x00, 0x00, 0x00, 0x00, 0x16, 0xf0, 0xff, 0xff,
  0x04, 0x00, 0x00, 0x00, 0x90, 0x00, 0x00, 0x00, 0xd9, 0x5f, 0x40, 0x09,
  0x31, 0x51, 0x69, 0x2f, 0x7f, 0x2d, 0x81, 0x59, 0x7e, 0x0c, 0x43, 0xd1,
  0x06, 0x2e, 0x32, 0xcf, 0xe1, 0xaf, 0x79, 0x7f, 0x67, 0xd0, 0xc6, 0x73,
  0x74, 0x61, 0x34, 0x0f, 0x8f, 0x7f, 0x46, 0xe6, 0x7f, 0x5b, 0x0b, 0x56,
  0xfe, 0x8e, 0xa3, 0x0b, 0x81, 0x7f, 0xd1, 0x7f, 0xa8, 0x3f, 0x4f, 0x25,
  0xe5, 0x8d, 0x6d, 0xfa, 0x0b, 0x4c, 0xbd, 0x7f, 0x39, 0xed, 0x7f, 0xe0,
  0xb5, 0x27, 0x3d, 0x13, 0xc7, 0x08, 0x7f, 0x49, 0x46, 0xef, 0xc1, 0x76,
  0x72, 0x26, 0x78, 0x32, 0x81, 0x5e, 0x5a, 0x58, 0x4e, 0x84, 0x42, 0x51,
  0x39, 0x81, 0xc8, 0x7e, 0xf3, 0x35, 0x0e, 0x7d, 0xb9, 0x13, 0x32, 0x7c,
  0xdd, 0x81, 0xf6, 0xed, 0x44, 0x2f, 0x00, 0x1c, 0x54, 0x17, 0x57, 0x0a,
  0x9e, 0x39, 0x1f, 0x61, 0xd3, 0x82, 0x77, 0xe4, 0x0d, 0x41, 0xe6, 0x68,
  0x49, 0x2f, 0x58, 0x25, 0x8f, 0x30, 0x7f, 0x7f, 0x4c, 0xf4, 0x0b, 0xe5,
  0x34, 0x0e, 0x01, 0x37, 0xcd, 0x1d, 0x5c, 0x58, 0xb2, 0xf0, 0xff, 0xff,
  0x04, 0x00, 0x00, 0x00, 0x00, 0x09, 0x00, 0x00, 0x31, 0xed, 0x11, 0xf6,
  0xef, 0x1e, 0x00, 0x07, 0x10, 0xda, 0x23, 0x03, 0xc6, 0x15, 0x0f, 0xd9,
  0x13, 0xe7, 0xfa, 0xf0, 0xe9, 0xf4, 0x05, 0xf5, 0x0b, 0xf4, 0x1f, 0xf9,
  0xf9, 0x00, 0xfa, 0xdb, 0xf1, 0xdf, 0xe3, 0xf8, 0xd9, 0xf4, 0x03, 0x05,
  0xf4, 0xfa, 0x0f, 0x13, 0x13, 0xf2, 0xf5, 0xf7, 0x0b, 0x0b, 0x07, 0xfc,
  0xf6, 0x17, 0xe3, 0x03, 0x16, 0xf9, 0x19, 0x05, 0xe0, 0xe6, 0x0c, 0xd1,
  0x07, 0xf9, 0x15, 0xfb, 0x0b, 0xf3, 0xe8, 0x00, 0x00, 0x0a, 0x1d, 0x07,
  0xe4, 0xd0, 0x01, 0xe0, 0xfa, 0xf2, 0xf4, 0xe9, 0xf1, 0x07, 0x0e, 0x06,
  0xf5, 0x1d, 0x18, 0x0d, 0x03, 0x81, 0xf0, 0xe5, 0x20, 0x15, 0x12, 0xed,
  0xfd, 0x2b, 0xff, 0x0a, 0x01, 0xf4, 0x1f, 0x0b, 0xff, 0xcb, 0xef, 0xf4,
  0x19, 0xfd, 0x0f, 0xf3, 0xee, 0xf7, 0x07, 0x0d, 0xff, 0xff, 0x11, 0x07,
  0xf3, 0xbb, 0xf2, 0x0f, 0xf7, 0xe9, 0x02, 0xf8, 0xb5, 0xf2, 0xfc, 0x04,
  0x11, 0x3f, 0x20, 0x05, 0xe8, 0xa8, 0xde, 0xff, 0x44, 0x08, 0x2b, 0xf5,
  0x0f, 0xf5, 0xe8, 0x3d, 0x06, 0x05, 0xea, 0xc6, 0x29, 0xdd, 0x1a, 0xc3,
  0x03, 0xd4, 0x06, 0xe9, 0x00, 0xf9, 0x1a, 0x07, 0x0e, 0xfd, 0xf7, 0xb5,
  0x02, 0xf2, 0x25, 0xcb, 0x40, 0xe7, 0x49, 0x0d, 0x55, 0xd0, 0x06, 0x1e,
  0x17, 0xf7, 0xf7, 0x9a, 0x00, 0x26, 0x20, 0xc2, 0xf0, 0xfb, 0x4a, 0xb8,
  0xdc, 0xce, 0xc9, 0x09, 0xef, 0x45, 0xf1, 0x81, 0x0a, 0xc0, 0xee, 0xc9,
  0x01, 0x1b, 0x47, 0xe1, 0x25, 0xd5, 0xeb, 0x05, 0x07, 0x2c, 0x1a, 0x82,
  0x0b, 0xd2, 0xfc, 0xc2, 0x32, 0xf0, 0x3d, 0x04, 0x4a, 0xfe, 0x1a, 0x21,
  0xd1, 0xe9, 0x0b, 0x84, 0x11, 0xc7, 0x04, 0xb4, 0x02, 0x1f, 0xf8, 0xde,
  0x00, 0x09, 0xbd, 0x24, 0xed, 0xfb, 0xdf, 0xa0, 0x2a, 0xa0, 0x0f, 0xe9,
  0x20, 0x35, 0x32, 0xe7, 0x24, 0xe9, 0xa8, 0x2c, 0xb2, 0x27, 0x3a, 0xbd,
  0xd9, 0xcf, 0xdb, 0xf9, 0x0a, 0x0c, 0x3c, 0xf6, 0x3f, 0xf7, 0xf5, 0x41,
  0xd6, 0x30, 0x08, 0x88, 0x1a, 0xcb, 0x1c, 0xba, 0x0b, 0xa1, 0x0e, 0x0f,
  0x1b, 0x0e, 0xdb, 0xea, 0xb9, 0x28, 0xe3, 0xd3, 0xc7, 0xe7, 0x16, 0xa2,
  0xf2, 0xbf, 0x1c, 0x00, 0xf9, 0x23, 0xde, 0xf7, 0xf5, 0x4a, 0xf6, 0xdb,
  0x16, 0x1e, 0xfc, 0xc4, 0x10, 0xd4, 0x08, 0xf5, 0xa0, 0x04, 0xa4, 0x2f,
  0xea, 0x68, 0xd4, 0xbe, 0x1f, 0x0e, 0xe1, 0xf2, 0x1f, 0xc3, 0x20, 0xe0,
  0x22, 0xe8, 0x0a, 0x1e, 0xa1, 0xe7, 0x12, 0xd7, 0xf3, 0xef, 0x20, 0x81,
  0x25, 0xa0, 0x3e, 0x18, 0x2b, 0x24, 0xcc, 0x39, 0xca, 0x0c, 0x08, 0xc5,
  0x1f, 0xf7, 0x24, 0xe0, 0xf4, 0xb2, 0x24, 0xff, 0x9c, 0x0b, 0xdc, 0x1b,
  0xd0, 0x50, 0xec, 0xa6, 0x0b, 0x03, 0x0c, 0x19, 0xef, 0xb1, 0x1c, 0xef,
  0xfe, 0xe9, 0xfa, 0x13, 0xcc, 0xdb, 0xe2, 0xff, 0xfa, 0x0e, 0x06, 0x86,
  0xf3, 0xb0, 0x52, 0x01, 0x37, 0x10, 0xc4, 0x4d, 0xaa, 0xfb, 0xde, 0xfd,
  0x1c, 0xf6, 0x28, 0xe6, 0xe0, 0xcd, 0x33, 0xf7, 0xd9, 0x09, 0xbb, 0x39,
  0xa8, 0x15, 0x07, 0xdb, 0xf4, 0xfb, 0x19, 0x2a, 0x31, 0xd6, 0x24, 0x04,
  0x20, 0x05, 0xee, 0xbe, 0xf7, 0x34, 0x0d, 0xa6, 0x03, 0xf5, 0x03, 0xcc,
  0x26, 0xd6, 0x22, 0xe8, 0xf0, 0x13, 0x16, 0xec, 0x09, 0x27, 0x17, 0xa6,
  0x04, 0x02, 0x0a, 0xd7, 0x10, 0xe1, 0xe0, 0xed, 0xde, 0x14, 0xe0, 0x0d,
  0x0c, 0x31, 0x00, 0x98, 0x06, 0xfa, 0xf5, 0xac, 0x05, 0xed, 0x27, 0xeb,
  0x33, 0xfb, 0xf8, 0x13, 0xcc, 0x0e, 0xff, 0xcf, 0xec, 0xed, 0x16, 0xd7,
  0x02, 0x00, 0x08, 0x14, 0x06, 0xf1, 0xf0, 0x13, 0xdb, 0x42, 0xf4, 0xa2,
  0xea, 0x1b, 0x09, 0x1c, 0xf0, 0x10, 0xdd, 0xfb, 0xea, 0x07, 0xe1, 0x16,
  0xd4, 0x2f, 0xf0, 0x8d, 0xf6, 0xe6, 0xf5, 0xde, 0x0e, 0x1c, 0x1b, 0xda,
  0x06, 0xf6, 0xbc, 0x09, 0xcf, 0x02, 0xf8, 0xcd, 0xf5, 0x02, 0x16, 0x01,
  0xf7, 0x06, 0x0b, 0xfa, 0x1a, 0xf4, 0xde, 0x22, 0xd8, 0x24, 0xee, 0xba,
  0x0f, 0xea, 0xfe, 0x30, 0x08, 0x04, 0xfc, 0xeb, 0xda, 0x02, 0xf7, 0x20,
  0xb6, 0x2e, 0xfc, 0x81, 0xda, 0xf7, 0x15, 0x32, 0xfb, 0xb6, 0x03, 0xe9,
  0xf4, 0x0a, 0xf2, 0xa0, 0x19, 0xf5, 0xf0, 0xed, 0xe8, 0xcb, 0x04, 0xf1,
  0xe7, 0xc7, 0xfd, 0xe7, 0xf2, 0xfb, 0x06, 0xec, 0xf2, 0x02, 0xe6, 0x08,
  0x1a, 0xe7, 0x07, 0xff, 0xec, 0xe0, 0xec, 0xfd, 0xd7, 0xe0, 0x0b, 0xb1,
  0xec, 0x15, 0x05, 0xf3, 0x27, 0xcd, 0x14, 0x0d, 0x16, 0xf3, 0x0c, 0xfc,
  0xeb, 0xf8, 0xe6, 0xd8, 0x02, 0x0a, 0x36, 0x07, 0x02, 0x94, 0xfd, 0x03,
  0x0a, 0xee, 0x04, 0xdf, 0xef, 0x01, 0xf9, 0xed, 0x17, 0x17, 0x06, 0x0e,
  0x18, 0xa8, 0xf6, 0x0d, 0x0e, 0xf6, 0xdc, 0xda, 0xd9, 0xe8, 0x02, 0xd8,
  0xfb, 0x0f, 0x0c, 0x09, 0x0a, 0x81, 0xf8, 0x04, 0x0c, 0xfe, 0x23, 0xda,
  0xe4, 0x18, 0xf4, 0x09, 0x0d, 0x02, 0x3c, 0x0e, 0xe6, 0xda, 0x0b, 0x1f,
  0x19, 0x10, 0xdf, 0xe9, 0xee, 0x08, 0xe9, 0xf3, 0x04, 0x1c, 0x11, 0x11,
  0xf2, 0xd7, 0xee, 0x09, 0x02, 0xf9, 0xd2, 0xed, 0xad, 0xe1, 0xf6, 0xef,
  0x09, 0x48, 0x24, 0x09, 0xe8, 0xbf, 0xe6, 0x0e, 0x1a, 0xff, 0x93, 0xb8,
  0x0a, 0xcb, 0xd3, 0x0c, 0xd7, 0x0c, 0xf3, 0xda, 0xa0, 0xb8, 0xf0, 0xe1,
  0x09, 0xe8, 0xe9, 0xb3, 0x20, 0xe8, 0xbe, 0x06, 0xea, 0xff, 0x04, 0xd8,
  0x11, 0xf4, 0xe6, 0x01, 0x18, 0xfc, 0xf2, 0xc4, 0x15, 0xfb, 0xd9, 0xe8,
  0x08, 0xdb, 0x1f, 0xfb, 0xc1, 0x0b, 0xef, 0xce, 0xff, 0x27, 0xd8, 0xe4,
  0xbf, 0xe8, 0x00, 0xeb, 0x16, 0x1b, 0x26, 0x15, 0xd7, 0xfe, 0xf7, 0xe7,
  0x0b, 0x0e, 0xf0, 0xfb, 0x32, 0xf4, 0xfc, 0xe3, 0x13, 0xe0, 0x15, 0xde,
  0x1a, 0x17, 0xf1, 0xe6, 0xeb, 0x1a, 0xef, 0xf2, 0x42, 0x0f, 0xe9, 0x0d,
  0x0d, 0xe0, 0x0b, 0xee, 0xe8, 0x20, 0xda, 0xa4, 0xf0, 0x10, 0x0c, 0x0c,
  0x81, 0xfc, 0xcb, 0x18, 0x1f, 0x27, 0x17, 0x21, 0xed, 0xf6, 0xd6, 0xf7,
  0xe3, 0x1d, 0xe6, 0x06, 0x1d, 0xfd, 0xcf, 0xe3, 0xfb, 0x0a, 0x0f, 0x08,
  0x01, 0xda, 0x04, 0xe4, 0xfd, 0x19, 0xfd, 0x23, 0x70, 0x04, 0xf5, 0x2d,
  0x13, 0x0b, 0xf7, 0x1a, 0xe5, 0x0b, 0xea, 0xb3, 0x02, 0xeb, 0x14, 0xf8,
  0xf7, 0xfb, 0x0b, 0xb1, 0x1e, 0x05, 0xfd, 0xef, 0x14, 0x11, 0x21, 0xe0,
  0x09, 0xf8, 0x12, 0x0d, 0xc0, 0xec, 0x10, 0xd3, 0x05, 0xdf, 0x0a, 0x03,
  0x27, 0x12, 0x21, 0xeb, 0x22, 0xc7, 0xf1, 0x05, 0x13, 0xe3, 0x07, 0xcb,
  0x0f, 0xde, 0xf4, 0xf7, 0x20, 0x09, 0xf3, 0x29, 0x18, 0x00, 0x0b, 0xcb,
  0x00, 0xf0, 0x05, 0x9a, 0xff, 0xe6, 0x26, 0x05, 0xed, 0xd8, 0x15, 0xcb,
  0x0c, 0xfd, 0xfa, 0xde, 0xbc, 0xdc, 0xd9, 0xb5, 0x07, 0xe9, 0x2a, 0xf9,
  0xf6, 0xdb, 0x14, 0xef, 0x14, 0xdc, 0xf4, 0xe7, 0xf9, 0xe3, 0xfb, 0x81,
  0xfc, 0x0e, 0x1e, 0xff, 0x15, 0xd9, 0x01, 0x23, 0x17, 0xf2, 0x0b, 0x9d,
  0x08, 0x00, 0x04, 0xdd, 0x1e, 0xf4, 0x35, 0xfd, 0xf7, 0xb8, 0x06, 0xd4,
  0x12, 0xf2, 0x1c, 0xae, 0xce, 0xf2, 0xf6, 0xfa, 0x06, 0x04, 0x1c, 0x1b,
  0xdb, 0xbe, 0xf9, 0xda, 0xe4, 0xf6, 0xf4, 0xb6, 0xe1, 0xf6, 0xf3, 0xd3,
  0x03, 0x3e, 0x14, 0x17, 0xff, 0xbe, 0xdc, 0x11, 0x38, 0xd5, 0x11, 0xfe,
  0x0e, 0x0d, 0xd6, 0xd6, 0xeb, 0xe1, 0x2b, 0xe3, 0xb8, 0x0d, 0x11, 0xd8,
  0x2e, 0xe1, 0x15, 0x13, 0xef, 0xf1, 0xf8, 0x07, 0xb5, 0x03, 0x13, 0xf0,
  0xeb, 0x23, 0xf2, 0xb6, 0x13, 0x81, 0x0d, 0x03, 0x9f, 0xf0, 0xed, 0x09,
  0x97, 0x21, 0xf6, 0x12, 0x13, 0xcb, 0xc7, 0xcb, 0x0f, 0xe8, 0x14, 0xee,
  0xeb, 0x29, 0xdf, 0x03, 0xe2, 0xe8, 0x41, 0xe8, 0xd0, 0x00, 0x10, 0xd3,
  0x42, 0xe9, 0x04, 0xf7, 0x07, 0xeb, 0xd5, 0x0e, 0xee, 0x07, 0x25, 0x09,
  0xfe, 0xfd, 0xe5, 0xb0, 0xf3, 0xcc, 0xef, 0x04, 0xd8, 0xf7, 0xdf, 0x17,
  0xe9, 0x21, 0x0a, 0x07, 0x0d, 0xb0, 0xee, 0xc3, 0x40, 0xe8, 0x11, 0xe5,
  0xc2, 0x37, 0xeb, 0x05, 0xf6, 0xfd, 0x21, 0xf1, 0xbc, 0xfa, 0x17, 0xd7,
  0x51, 0xdd, 0x06, 0x04, 0xe4, 0xf3, 0xff, 0x06, 0xd9, 0x37, 0x38, 0x06,
  0x0e, 0xd7, 0xce, 0xde, 0x17, 0xad, 0x0a, 0x05, 0xb2, 0xee, 0x14, 0x10,
  0xe2, 0x21, 0x06, 0x12, 0x0b, 0xb2, 0xee, 0xca, 0x0d, 0xfa, 0x24, 0x04,
  0xf8, 0xf5, 0xf7, 0xfa, 0xf6, 0xc0, 0x09, 0x9d, 0x25, 0x04, 0x15, 0xdb,
  0xfc, 0xba, 0x05, 0x08, 0x3b, 0xd2, 0x14, 0x15, 0x0c, 0xd3, 0xf0, 0xda,
  0x12, 0x11, 0xfd, 0xe5, 0x0e, 0xf2, 0x34, 0xf4, 0x4c, 0xce, 0xf1, 0x09,
  0x1f, 0xcc, 0xe4, 0xb0, 0x2b, 0x0c, 0x3f, 0xd9, 0x15, 0xf0, 0x11, 0xf8,
  0xf0, 0xe8, 0xfa, 0x1a, 0x15, 0x01, 0xf2, 0x81, 0x17, 0xdf, 0x14, 0xab,
  0x32, 0xf9, 0x28, 0xd1, 0x06, 0xdb, 0xe9, 0x03, 0x15, 0xf1, 0x2d, 0xba,
  0x2d, 0xf3, 0x02, 0xe1, 0x3d, 0xf6, 0x47, 0xc9, 0x35, 0xf5, 0xf4, 0x19,
  0x21, 0xa5, 0x18, 0x8d, 0xf6, 0x20, 0x10, 0xaa, 0x1e, 0x35, 0x19, 0xbd,
  0xc4, 0x03, 0xd7, 0xe8, 0xa1, 0xf9, 0x23, 0xa6, 0x08, 0xea, 0x08, 0xd3,
  0x45, 0x1f, 0x4f, 0xd3, 0x03, 0xd7, 0xea, 0x17, 0xda, 0xed, 0x2a, 0xb6,
  0xf4, 0xb6, 0x2c, 0x0d, 0x40, 0x3c, 0x1d, 0xcd, 0x20, 0xe1, 0x21, 0x18,
  0xe9, 0xc1, 0x36, 0xc0, 0x02, 0x04, 0x11, 0xd8, 0x03, 0x02, 0xe6, 0x0c,
  0x16, 0x2b, 0xe4, 0x00, 0x16, 0xf3, 0xfe, 0x04, 0xf9, 0xa9, 0xdc, 0x06,
  0x03, 0xf0, 0x02, 0x0c, 0xeb, 0x15, 0xea, 0xf3, 0x0a, 0xed, 0x03, 0x05,
  0x05, 0xe8, 0xef, 0x0b, 0x20, 0x02, 0x1f, 0xf2, 0xba, 0x23, 0xe9, 0xb5,
  0x03, 0xff, 0xf9, 0xf9, 0xf3, 0xe0, 0xe2, 0xe7, 0x07, 0x08, 0xd6, 0xeb,
  0xed, 0x0d, 0xe5, 0xed, 0x14, 0xf1, 0xf7, 0xf8, 0xf3, 0x81, 0x11, 0x03,
  0x07, 0xf0, 0xe3, 0xf9, 0xe6, 0x0b, 0xf1, 0x09, 0x0c, 0xe7, 0x0c, 0xec,
  0xdf, 0xcf, 0xfc, 0x19, 0x06, 0xfb, 0xe9, 0xea, 0xdd, 0x06, 0xdf, 0xd8,
  0x22, 0x19, 0x1d, 0x03, 0xf3, 0xd5, 0x06, 0x0a, 0xf1, 0x0d, 0xc4, 0xec,
  0xeb, 0x01, 0x00, 0xff, 0x09, 0xfc, 0xf9, 0xfe, 0xee, 0xda, 0x2a, 0x17,
  0xf8, 0x06, 0xd7, 0xe4, 0xe1, 0x06, 0x06, 0x13, 0x0f, 0xeb, 0x0d, 0xe5,
  0xc9, 0xc4, 0x0f, 0x0f, 0x1f, 0x03, 0xe0, 0xe3, 0xbe, 0x03, 0xee, 0xff,
  0xf5, 0xd2, 0x00, 0xf4, 0xf5, 0xd9, 0x11, 0x18, 0x18, 0xbe, 0x0f, 0xd1,
  0x0a, 0x06, 0x14, 0xe3, 0x1a, 0xe7, 0x23, 0xe3, 0xd0, 0xf0, 0x1e, 0xd1,
  0x0e, 0xe7, 0x12, 0xe8, 0xcb, 0xef, 0x06, 0xc0, 0xf7, 0xed, 0x1d, 0x09,
  0xf6, 0xde, 0x09, 0xc3, 0x03, 0xdd, 0x0e, 0xf8, 0xdf, 0xda, 0x25, 0xa5,
  0xe5, 0x04, 0x05, 0x00, 0xed, 0xad, 0x07, 0x07, 0x26, 0xee, 0x0f, 0xed,
  0xff, 0x18, 0xdb, 0xff, 0x18, 0x10, 0x1d, 0xf6, 0xb5, 0xd5, 0x14, 0xfb,
  0x0f, 0x08, 0xf0, 0xd5, 0x02, 0x14, 0xeb, 0x03, 0x12, 0x2c, 0x19, 0x0c,
  0xf5, 0xb0, 0xf6, 0xed, 0x0b, 0x05, 0x09, 0xe0, 0xe3, 0xf8, 0x03, 0xe8,
  0x02, 0x13, 0x09, 0x0c, 0xe2, 0x81, 0xee, 0x07, 0x3a, 0xee, 0x10, 0xd8,
  0x12, 0x63, 0x02, 0x19, 0x1b, 0xea, 0x14, 0xf3, 0xb7, 0xd5, 0xf3, 0x31,
  0x33, 0x12, 0x1b, 0xe0, 0x14, 0x0b, 0x00, 0x06, 0x11, 0x07, 0xfc, 0xfe,
  0xf5, 0xd9, 0xe9, 0x06, 0x06, 0xf8, 0x09, 0xe8, 0xdf, 0xf4, 0xfa, 0x05,
  0x02, 0x2e, 0x06, 0x0c, 0xd8, 0xc6, 0xc1, 0x17, 0x70, 0xf9, 0xff, 0xda,
  0xf4, 0xed, 0xf7, 0xf3, 0xfe, 0xde, 0x63, 0xeb, 0xc9, 0xb1, 0x41, 0xcf,
  0x3e, 0xe2, 0x15, 0x1c, 0xd6, 0xe3, 0x0c, 0xf8, 0xe9, 0xe1, 0x3f, 0xf4,
  0xc0, 0x1f, 0xff, 0xdb, 0x5a, 0xe5, 0x16, 0xff, 0xe2, 0xd0, 0xfd, 0xf9,
  0xd5, 0xe6, 0x4a, 0x26, 0x07, 0xf5, 0xe6, 0xf3, 0x76, 0x07, 0x0c, 0xe0,
  0xe8, 0x09, 0xfe, 0xf6, 0x07, 0xf3, 0x2d, 0xf3, 0xa7, 0xb3, 0x06, 0xcc,
  0x34, 0xce, 0x0f, 0x03, 0xde, 0xd8, 0xe8, 0x01, 0xf3, 0xee, 0x1d, 0xf5,
  0xc9, 0x26, 0xfd, 0xdf, 0x50, 0xef, 0x13, 0xf2, 0xc2, 0xdd, 0xf1, 0x0e,
  0xcd, 0x2a, 0x38, 0x06, 0x0a, 0x05, 0xda, 0xf7, 0x53, 0xea, 0xf6, 0xcc,
  0xd2, 0x7c, 0x04, 0xed, 0x0f, 0xea, 0xfe, 0x13, 0x90, 0xf6, 0x07, 0xb0,
  0x2a, 0x81, 0xeb, 0xcb, 0xde, 0x0b, 0xfd, 0xfc, 0x1e, 0xfd, 0xfd, 0x26,
  0xc7, 0xf2, 0x0d, 0x0b, 0x44, 0xcb, 0xfd, 0xd3, 0x91, 0xeb, 0xf6, 0xee,
  0x00, 0xfc, 0x3e, 0x2b, 0xe2, 0xbe, 0x03, 0xd4, 0x23, 0xd0, 0x11, 0xfe,
  0x18, 0xf0, 0xe4, 0xcf, 0x04, 0x06, 0x02, 0xe7, 0x01, 0x02, 0x81, 0xdf,
  0xf3, 0xe3, 0xb9, 0x0f, 0xeb, 0xe4, 0x01, 0xe7, 0x00, 0x21, 0xfc, 0xd5,
  0x23, 0xef, 0xc6, 0xd9, 0xeb, 0xfb, 0x9b, 0xdf, 0x1f, 0xd6, 0xeb, 0x1e,
  0x22, 0xdd, 0xe3, 0xf9, 0x15, 0xeb, 0xeb, 0x15, 0x03, 0xce, 0x38, 0xfa,
  0x05, 0x04, 0xde, 0xde, 0xe1, 0x19, 0x0e, 0xf8, 0x16, 0xd5, 0xc3, 0xfb,
  0x04, 0xe8, 0xfd, 0xf1, 0xb5, 0xed, 0xec, 0xd1, 0xfe, 0x2a, 0xd6, 0xc8,
  0x14, 0xf6, 0xcc, 0xf9, 0xd4, 0xff, 0xf2, 0xd2, 0xcd, 0x0d, 0xfa, 0xeb,
  0xf2, 0x1e, 0xed, 0xcb, 0xff, 0xf2, 0xca, 0x0f, 0xf8, 0xe1, 0x37, 0xc2,
  0xe1, 0xfe, 0xc7, 0xfe, 0xf2, 0x34, 0x27, 0x02, 0x11, 0xea, 0xd4, 0x17,
  0x0c, 0xec, 0x1d, 0xb7, 0xc1, 0x07, 0xf4, 0xeb, 0xf8, 0x30, 0x1b, 0x0a,
  0x08, 0xe5, 0xea, 0x18, 0xdf, 0xf1, 0xef, 0xc5, 0xf5, 0x1e, 0x10, 0x89,
  0xe5, 0x40, 0xed, 0x17, 0xcb, 0xf6, 0xe9, 0x0a, 0x2a, 0xe4, 0x22, 0xfc,
  0xca, 0x09, 0xe3, 0xf4, 0xd0, 0x19, 0xf3, 0xcb, 0xe3, 0x00, 0xde, 0xa1,
  0x07, 0x8f, 0xfe, 0xf3, 0xc1, 0x14, 0x0a, 0xf2, 0xcf, 0x20, 0xcf, 0xd6,
  0x14, 0x09, 0xbf, 0xc1, 0xda, 0x81, 0xdd, 0x04, 0xbe, 0x01, 0xf3, 0xdc,
  0xe3, 0xf3, 0xce, 0xf1, 0x21, 0x09, 0xd4, 0xb0, 0x1d, 0xcf, 0x1f, 0x03,
  0xff, 0x1d, 0xcd, 0x2d, 0xc4, 0xf9, 0x07, 0x00, 0xe7, 0x02, 0xd1, 0xed,
  0x14, 0xa4, 0xf7, 0x03, 0xed, 0x0a, 0xdf, 0x45, 0xce, 0x0c, 0xfd, 0xc4,
  0x1a, 0xf4, 0xb1, 0xe4, 0xf6, 0xb1, 0xed, 0xff, 0xb1, 0x11, 0xdd, 0xdc,
  0xed, 0x03, 0xe9, 0xc1, 0x17, 0x06, 0xad, 0xfd, 0xe9, 0xf6, 0x36, 0xfb,
  0xd4, 0x2a, 0xcf, 0xf5, 0xc2, 0x05, 0x30, 0x18, 0xf1, 0x04, 0xf4, 0xf2,
  0xfd, 0xb6, 0x17, 0x00, 0xf0, 0xf2, 0xd9, 0x0c, 0xb7, 0xea, 0x1f, 0xea,
  0x07, 0xfb, 0xea, 0xfd, 0xda, 0xb6, 0x1d, 0xf7, 0xaa, 0x0f, 0xcf, 0xbd,
  0xcc, 0xf5, 0x16, 0xe0, 0x1f, 0xef, 0xf0, 0x20, 0x12, 0x13, 0xb8, 0xfc,
  0x0e, 0x22, 0x20, 0x19, 0x1f, 0xca, 0x23, 0x10, 0xf9, 0xfb, 0xdb, 0x07,
  0x1a, 0x04, 0x96, 0x05, 0x26, 0x16, 0x16, 0xda, 0xf2, 0xf2, 0x2c, 0xfa,
  0xd2, 0x07, 0xdf, 0x0f, 0x0b, 0x12, 0xc7, 0xef, 0x3c, 0x15, 0xff, 0xe0,
  0xee, 0xb1, 0x33, 0xf5, 0xde, 0xff, 0x01, 0x30, 0xfb, 0x14, 0x81, 0x04,
  0xff, 0x03, 0x02, 0xf6, 0x09, 0xe2, 0x37, 0x11, 0x16, 0xf5, 0xe0, 0xe8,
  0xeb, 0x11, 0xa1, 0xf6, 0x0d, 0xfe, 0xdf, 0xf8, 0x18, 0xfb, 0x0e, 0x07,
  0xfd, 0xeb, 0xc6, 0xf7, 0xf0, 0x20, 0xec, 0x03, 0x36, 0xf4, 0xc9, 0xdf,
  0x0e, 0xe0, 0x1a, 0x1f, 0xf5, 0xfc, 0xe6, 0xe5, 0xee, 0xe2, 0xa1, 0xf2,
  0xcd, 0x22, 0xe5, 0x09, 0xf4, 0x06, 0x09, 0xf3, 0xf5, 0x1a, 0xd3, 0xea,
  0xed, 0xe6, 0xb8, 0xee, 0xca, 0x22, 0xc4, 0xd7, 0x0a, 0xf7, 0x08, 0xe9,
  0x06, 0x04, 0xbe, 0x19, 0xfb, 0xdf, 0xdc, 0xfb, 0xf7, 0x02, 0xb7, 0xe5,
  0xfc, 0x02, 0xf0, 0x00, 0x07, 0x00, 0xd5, 0x2c, 0x05, 0xef, 0x01, 0xde,
  0xe3, 0x1b, 0xd1, 0xec, 0x08, 0x24, 0x30, 0x0d, 0xa4, 0xdf, 0xec, 0xb3,
  0x0d, 0xed, 0x19, 0xea, 0xd3, 0xfe, 0xf2, 0xf5, 0x31, 0xd5, 0x15, 0xfb,
  0xe1, 0xfc, 0xea, 0xda, 0xe8, 0xe9, 0x12, 0x0b, 0x81, 0xf0, 0x08, 0xc5,
  0x17, 0x19, 0x26, 0x2c, 0x3a, 0xd8, 0x01, 0xd5, 0x0c, 0xf4, 0x08, 0xe2,
  0xaf, 0x35, 0xd2, 0xfd, 0x16, 0xfa, 0x02, 0xff, 0xe7, 0xe9, 0xf3, 0x01,
  0x23, 0x06, 0xf7, 0xe7, 0xe1, 0x0e, 0xea, 0x15, 0x29, 0xfc, 0x1a, 0x18,
  0x0e, 0xda, 0xea, 0xec, 0x24, 0xfd, 0x25, 0xf7, 0xb7, 0x19, 0xfa, 0xf1,
  0x03, 0x02, 0x29, 0x1c, 0x07, 0xcf, 0xf7, 0xda, 0x20, 0xf8, 0x1f, 0x8d,
  0xe7, 0x41, 0xf9, 0x15, 0xef, 0xd2, 0xfe, 0x07, 0xd1, 0x0d, 0x14, 0x34,
  0x4c, 0x05, 0xf9, 0xe5, 0xfe, 0x1a, 0xf1, 0x12, 0x01, 0xec, 0x06, 0x23,
  0xf8, 0xe1, 0xea, 0x30, 0x40, 0x15, 0x1d, 0xe2, 0xab, 0x23, 0x0d, 0x01,
  0x16, 0xed, 0x23, 0xf6, 0x12, 0xe4, 0x09, 0x30, 0xbe, 0xf9, 0xff, 0xff,
  0x04, 0x00, 0x00, 0x00, 0x00, 0x04, 0x00, 0x00, 0xd2, 0xc1, 0xea, 0x7f,
  0xc5, 0x3b, 0xee, 0x08, 0x17, 0x19, 0xf6, 0xf8, 0x40, 0x05, 0xe4, 0xdd,
  0x04, 0x12, 0x81, 0x0f, 0x0b, 0xe0, 0xf9, 0x35, 0x05, 0xfa, 0xfc, 0x01,
  0x14, 0x10, 0xdc, 0xf4, 0x1d, 0xd5, 0x25, 0x19, 0x7f, 0x2c, 0x2e, 0x31,
  0x2c, 0x42, 0x4b, 0x77, 0xd8, 0x3a, 0x02, 0x09, 0x0a, 0xf8, 0x26, 0x34,
  0xe0, 0xb9, 0xbd, 0x5e, 0xf8, 0xed, 0xff, 0x2a, 0x14, 0x7f, 0x93, 0xc4,
  0xd4, 0xe5, 0xf0, 0xca, 0xe7, 0xf7, 0xfc, 0x49, 0xf3, 0xdf, 0xcc, 0xe9,
  0xb7, 0x43, 0x7f, 0xda, 0x3b, 0x10, 0x17, 0xfa, 0x24, 0xef, 0xc6, 0xf4,
  0xff, 0xcd, 0x7f, 0x45, 0x33, 0xdd, 0x9c, 0xf9, 0x3c, 0xf9, 0x2a, 0xc2,
  0x7c, 0x4c, 0xb8, 0x35, 0x30, 0x11, 0x0f, 0x32, 0x1c, 0x7f, 0xef, 0x5c,
  0x13, 0x0b, 0x81, 0x4d, 0x01, 0x0b, 0x0f, 0x41, 0x0e, 0xd1, 0x18, 0x1a,
  0x0e, 0x48, 0x0b, 0x19, 0x51, 0x1d, 0x29, 0xca, 0x56, 0x25, 0x42, 0xf6,
  0xe7, 0x4f, 0x1b, 0x7f, 0xfd, 0xde, 0xf0, 0xf7, 0x36, 0xf0, 0xde, 0xb4,
  0xd8, 0x0a, 0x0e, 0xfd, 0x07, 0xf8, 0x56, 0xf9, 0x81, 0x89, 0xdd, 0xf7,
  0xf9, 0xce, 0xdc, 0x5a, 0xde, 0x02, 0x02, 0xfb, 0x23, 0xb1, 0xe2, 0xe6,
  0x7f, 0x50, 0xc8, 0xe0, 0x26, 0x2f, 0x5b, 0x3d, 0xd0, 0xfb, 0xe2, 0x17,
  0x12, 0x20, 0x0b, 0x22, 0x7f, 0x73, 0xea, 0x0a, 0x2c, 0x3f, 0x34, 0x33,
  0x45, 0x0f, 0xef, 0x7f, 0xff, 0xf7, 0xdc, 0x10, 0x4a, 0x46, 0x11, 0x1b,
  0xe4, 0x90, 0xcd, 0x08, 0xa6, 0x19, 0x98, 0x3f, 0x81, 0xaa, 0xf4, 0xe4,
  0xb1, 0xb2, 0xfd, 0xb5, 0x7f, 0xff, 0xd9, 0x90, 0x4a, 0x17, 0x2e, 0xf1,
  0x2b, 0xce, 0x31, 0x6c, 0xd3, 0xa9, 0xa3, 0xfa, 0x28, 0xf2, 0x2d, 0x08,
  0x5f, 0xae, 0x16, 0x52, 0xf2, 0x37, 0x28, 0x3f, 0x23, 0x0d, 0x81, 0x0f,
  0x2a, 0xf4, 0xd9, 0x98, 0xe6, 0x8e, 0x7f, 0xb4, 0xcf, 0xdd, 0xfb, 0x24,
  0xe0, 0x87, 0xf1, 0x2a, 0xa8, 0x4e, 0x8c, 0xd2, 0xef, 0xdf, 0xf2, 0x09,
  0x0b, 0x3c, 0xd5, 0xb2, 0x7f, 0x73, 0xce, 0xac, 0x1a, 0xfd, 0xe2, 0xb7,
  0x42, 0x0d, 0xea, 0x00, 0x02, 0xcf, 0x45, 0x2d, 0x8f, 0x81, 0xe4, 0xe4,
  0xb8, 0x06, 0xb0, 0xe8, 0xed, 0x1c, 0x83, 0x9c, 0x9f, 0x81, 0xbd, 0xc2,
  0xca, 0xb7, 0x0f, 0x9d, 0xea, 0x1d, 0x3f, 0x7f, 0xf7, 0xef, 0x2a, 0x1f,
  0x3b, 0x13, 0x17, 0xc8, 0x64, 0x27, 0x02, 0x04, 0xa4, 0x30, 0xf9, 0xf6,
  0x8c, 0x1f, 0x45, 0xf2, 0x27, 0xfb, 0x81, 0xc2, 0xf4, 0xd3, 0x31, 0xcb,
  0xe3, 0x81, 0x0f, 0xee, 0xa6, 0x8c, 0x33, 0x0e, 0x10, 0x03, 0x41, 0xa1,
  0x15, 0xa8, 0x52, 0x28, 0x61, 0x42, 0x46, 0x39, 0xfc, 0x1e, 0x0c, 0x77,
  0x39, 0x74, 0x32, 0x3e, 0x5d, 0x7f, 0x9a, 0x34, 0x00, 0x2e, 0x21, 0x3a,
  0x10, 0xe2, 0xf1, 0x1e, 0xe8, 0x53, 0xdf, 0x1d, 0x7f, 0x20, 0x89, 0xcd,
  0x36, 0x2e, 0x0e, 0x3a, 0x3e, 0x90, 0x05, 0x4e, 0xee, 0xfa, 0x29, 0x37,
  0x7f, 0x50, 0x1a, 0xe9, 0x18, 0xfb, 0xf3, 0x25, 0x34, 0x19, 0x57, 0x0d,
  0xde, 0xff, 0xcb, 0x0e, 0x7f, 0x08, 0xe7, 0xcc, 0x29, 0x03, 0x07, 0x00,
  0x31, 0xfb, 0x81, 0xf4, 0x0f, 0x01, 0x37, 0x1b, 0xdd, 0xdc, 0x0c, 0xeb,
  0xb9, 0x31, 0x21, 0xff, 0x81, 0x12, 0xd7, 0xf7, 0x42, 0xde, 0xc3, 0x8d,
  0xdc, 0xfd, 0xfb, 0xbe, 0xaa, 0x37, 0xfa, 0x59, 0xb8, 0xfc, 0xfe, 0x0f,
  0xb8, 0xc3, 0x81, 0xf3, 0xfa, 0x1c, 0xb2, 0xda, 0x3f, 0x0d, 0xfb, 0xe8,
  0x56, 0x05, 0xb5, 0xe0, 0xf8, 0xf2, 0xe5, 0x1e, 0x81, 0xa4, 0xb3, 0x07,
  0xfc, 0xec, 0xde, 0xb2, 0x0f, 0x09, 0x0f, 0x0e, 0x0c, 0xfd, 0x39, 0x46,
  0x9b, 0x81, 0xb5, 0x31, 0x92, 0x17, 0x20, 0x11, 0xbe, 0xfb, 0x04, 0xb2,
  0xe6, 0xcc, 0x97, 0x92, 0x81, 0xba, 0xfa, 0xb1, 0x27, 0xb3, 0xe6, 0x0c,
  0x91, 0x07, 0x30, 0x81, 0x57, 0x3b, 0x67, 0xe0, 0xb9, 0xb3, 0x94, 0x39,
  0x01, 0xe1, 0x64, 0x0c, 0xd1, 0x29, 0xc6, 0x7f, 0xce, 0x62, 0x3f, 0x3e,
  0xfe, 0x40, 0xb8, 0x39, 0x9e, 0x21, 0x28, 0x48, 0xd0, 0xe0, 0x28, 0xdc,
  0x81, 0x09, 0xac, 0xe5, 0xa6, 0x00, 0x29, 0xb9, 0x81, 0xe9, 0xf9, 0x24,
  0xb8, 0xe6, 0xe5, 0x86, 0x29, 0x81, 0x8a, 0x84, 0xb1, 0xc7, 0xe1, 0xc1,
  0x81, 0x3b, 0xe9, 0x24, 0xcb, 0xe7, 0x07, 0xe0, 0x28, 0x85, 0x92, 0xad,
  0x97, 0xc8, 0x04, 0xa2, 0xa8, 0x13, 0x21, 0x35, 0x81, 0x38, 0xe5, 0xd3,
  0x22, 0xe7, 0xda, 0xd2, 0xe5, 0xcc, 0x1f, 0xe1, 0x81, 0xf1, 0x3b, 0x9b,
  0xc1, 0x07, 0xeb, 0xac, 0x01, 0xf9, 0xb7, 0x99, 0xe0, 0xe8, 0x0a, 0xaf,
  0x96, 0x1d, 0xef, 0x37, 0x83, 0x0e, 0x30, 0xd1, 0x21, 0xe6, 0xbc, 0x81,
  0x1b, 0xf5, 0x05, 0xa5, 0xaa, 0x00, 0x19, 0xf5, 0xb0, 0xea, 0xd6, 0xb9,
  0x2e, 0xf3, 0x81, 0xd3, 0x92, 0xed, 0x14, 0xbb, 0x39, 0xf2, 0xd6, 0x81,
  0x27, 0x20, 0xfe, 0xf6, 0x05, 0x26, 0x3d, 0x50, 0xc4, 0xd9, 0x4e, 0x1b,
  0xfa, 0x03, 0x9a, 0x22, 0x03, 0xb3, 0xd5, 0x57, 0x1e, 0xaa, 0xd4, 0x0a,
  0x21, 0x32, 0x81, 0xf2, 0xd1, 0x54, 0x1c, 0x20, 0xda, 0xfb, 0xf2, 0xcd,
  0x81, 0xda, 0xc2, 0xfd, 0xb6, 0x12, 0xab, 0xf8, 0xfc, 0xfe, 0xe9, 0x05,
  0x3a, 0xe0, 0x81, 0xc1, 0x1f, 0xff, 0xed, 0x62, 0x49, 0xf0, 0x0a, 0x2b,
  0xff, 0x12, 0xf3, 0xe2, 0xcf, 0xf7, 0x7f, 0xd9, 0xed, 0x19, 0xf7, 0xe2,
  0xc5, 0xb0, 0xc8, 0xef, 0xcd, 0x1c, 0xf8, 0x51, 0xb8, 0x28, 0x0a, 0x07,
  0xb5, 0xe8, 0x96, 0xc7, 0x7f, 0x2f, 0xc7, 0xf7, 0x1b, 0x69, 0xdf, 0xae,
  0x04, 0x43, 0x3a, 0x05, 0x7f, 0x0e, 0xb7, 0x26, 0x0f, 0xf4, 0xad, 0x1c,
  0xf8, 0x81, 0x1a, 0x39, 0xdc, 0xf5, 0x16, 0xcc, 0xa9, 0xfa, 0xf7, 0xe3,
  0xe3, 0xce, 0x0e, 0x12, 0x38, 0x3a, 0xe5, 0xc5, 0x3d, 0xf1, 0x3d, 0xdf,
  0x26, 0x1a, 0xd7, 0xf6, 0x81, 0xb3, 0xbe, 0xf2, 0x1d, 0x58, 0x64, 0x5d,
  0xed, 0x72, 0x53, 0xfb, 0x36, 0x7f, 0x55, 0x01, 0x57, 0xf9, 0x1b, 0x08,
  0xbf, 0x01, 0x78, 0xeb, 0xec, 0xf0, 0xd5, 0x7f, 0xe7, 0xf8, 0x9d, 0x9d,
  0x51, 0xf1, 0xf7, 0xc3, 0xba, 0x48, 0xd7, 0x2d, 0xe2, 0x23, 0xe3, 0xad,
  0x1b, 0xa9, 0x81, 0xda, 0x20, 0xd0, 0xbe, 0x42, 0x33, 0x20, 0x3a, 0x5b,
  0x4c, 0x1f, 0x0e, 0x30, 0xef, 0xf0, 0xef, 0x18, 0x7f, 0x6d, 0x30, 0x49,
  0xb3, 0xd3, 0x19, 0x8d, 0x2b, 0x10, 0x81, 0x3f, 0x90, 0x9e, 0x3c, 0xbc,
  0xa4, 0x89, 0x2e, 0xc5, 0x97, 0x5f, 0xe6, 0xec, 0x95, 0xe6, 0xfb, 0xdd,
  0xec, 0xd5, 0xc2, 0xeb, 0x81, 0xc9, 0xea, 0xba, 0x08, 0x13, 0x81, 0x26,
  0x0b, 0x07, 0xfe, 0x41, 0x00, 0x0f, 0xfc, 0x02, 0x22, 0x48, 0xe1, 0xfa,
  0xaa, 0xe3, 0xf1, 0x3f, 0x91, 0xfe, 0xbf, 0xfa, 0x61, 0x81, 0x9c, 0x8a,
  0x99, 0x16, 0x1c, 0xac, 0xdd, 0xf5, 0xff, 0xdb, 0x69, 0x81, 0x09, 0xea,
  0xf6, 0x3e, 0x38, 0x4e, 0x44, 0x31, 0x19, 0x0a, 0xde, 0x81, 0x23, 0x3e,
  0xe4, 0x13, 0xfe, 0xf2, 0x17, 0xfa, 0xfd, 0xef, 0x51, 0xd6, 0xf6, 0xf2,
  0x0b, 0x2b, 0xbb, 0x38, 0x7f, 0x7a, 0x67, 0x86, 0x6e, 0xdb, 0xb7, 0x5f,
  0x04, 0xbc, 0xbe, 0x3c, 0xb5, 0xfc, 0xfc, 0xf6, 0x24, 0x21, 0xe3, 0x2e,
  0xfa, 0xf6, 0x48, 0x43, 0x81, 0x41, 0xf3, 0xfe, 0xfd, 0xeb, 0xe5, 0x31,
  0xb8, 0xde, 0xd7, 0xc8, 0x65, 0x20, 0x8a, 0x81, 0xef, 0x10, 0x14, 0x0e,
  0xca, 0xfd, 0xff, 0xff, 0x04, 0x00, 0x00, 0x00, 0x00, 0x01, 0x00, 0x00,
  0xf6, 0x00, 0x00, 0x00, 0x51, 0x03, 0x00, 0x00, 0xa1, 0xfb, 0xff, 0xff,
  0x74, 0x02, 0x00, 0x00, 0x42, 0x08, 0x00, 0x00, 0xfb, 0x00, 0x00, 0x00,
  0x45, 0x00, 0x00, 0x00, 0xcf, 0xfc, 0xff, 0xff, 0x6a, 0xfc, 0xff, 0xff,
  0x85, 0x05, 0x00, 0x00, 0x02, 0x02, 0x00, 0x00, 0xf9, 0x01, 0x00, 0x00,
  0xb7, 0xfe, 0xff, 0xff, 0x28, 0xfd, 0xff, 0xff, 0xcc, 0xff, 0xff, 0xff,
  0x10, 0x01, 0x00, 0x00, 0x9f, 0x04, 0x00, 0x00, 0xa3, 0x0b, 0x00, 0x00,
  0x36, 0x06, 0x00, 0x00, 0x89, 0xfc, 0xff, 0xff, 0x40, 0xfc, 0xff, 0xff,
  0x83, 0xfd, 0xff, 0xff, 0xa8, 0x05, 0x00, 0x00, 0x0b, 0xff, 0xff, 0xff,
  0x41, 0x02, 0x00, 0x00, 0xb5, 0x01, 0x00, 0x00, 0x9e, 0xfe, 0xff, 0xff,
  0x52, 0x01, 0x00, 0x00, 0xe6, 0x01, 0x00, 0x00, 0x36, 0x04, 0x00, 0x00,
  0xc4, 0x02, 0x00, 0x00, 0x3d, 0x05, 0x00, 0x00, 0x0c, 0x03, 0x00, 0x00,
  0xc0, 0xff, 0xff, 0xff, 0x71, 0x01, 0x00, 0x00, 0xd2, 0x02, 0x00, 0x00,
  0xd4, 0x06, 0x00, 0x00, 0x0c, 0x03, 0x00, 0x00, 0x90, 0xfe, 0xff, 0xff,
  0x22, 0x00, 0x00, 0x00, 0x8b, 0x00, 0x00, 0x00, 0xfc, 0xff, 0xff, 0xff,
  0xa5, 0x03, 0x00, 0x00, 0x1d, 0x04, 0x00, 0x00, 0x31, 0x04, 0x00, 0x00,
  0x56, 0x01, 0x00, 0x00, 0x0d, 0x01, 0x00, 0x00, 0x86, 0x03, 0x00, 0x00,
  0x49, 0xfc, 0xff, 0xff, 0x26, 0x02, 0x00, 0x00, 0x25, 0xff, 0xff, 0xff,
  0xd1, 0xf6, 0xff, 0xff, 0xd2, 0x06, 0x00, 0x00, 0x3f, 0x02, 0x00, 0x00,
  0x5b, 0xfb, 0xff, 0xff, 0x28, 0xfe, 0xff, 0xff, 0x05, 0x03, 0x00, 0x00,
  0xc4, 0x01, 0x00, 0x00, 0x0a, 0x01, 0x00, 0x00, 0xd0, 0x08, 0x00, 0x00,
  0xbd, 0x01, 0x00, 0x00, 0xe3, 0xf9, 0xff, 0xff, 0xbb, 0x02, 0x00, 0x00,
  0xa6, 0x00, 0x00, 0x00, 0xd6, 0xfe, 0xff, 0xff, 0x04, 0x00, 0x00, 0x00,
  0x00, 0x01, 0x00, 0x00, 0xae, 0x0e, 0xd2, 0xf6, 0x20, 0xd7, 0xed, 0xcd,
  0xaf, 0x20, 0xd8, 0xf4, 0xde, 0xfa, 0xe9, 0xf4, 0x26, 0x0a, 0x2e, 0xfa,
  0xdd, 0xc0, 0x38, 0xd5, 0xed, 0x15, 0xab, 0xbe, 0xd9, 0xb1, 0xb1, 0x18,
  0xed, 0xee, 0xf4, 0xea, 0x10, 0xe6, 0xdd, 0xe9, 0xf2, 0x06, 0x16, 0xe4,
  0xb0, 0xc3, 0x0e, 0xb2, 0xbe, 0x0a, 0xb1, 0xb8, 0xfd, 0xc2, 0xdd, 0x01,
  0xa9, 0xea, 0xf9, 0x23, 0xfc, 0x81, 0xf9, 0xcd, 0x33, 0x53, 0x29, 0x23,
  0x65, 0xf6, 0x29, 0x69, 0x05, 0x96, 0x01, 0x21, 0x34, 0x04, 0x06, 0x41,
  0xc4, 0x2c, 0x96, 0x1f, 0x08, 0xf6, 0xda, 0x32, 0x2d, 0x29, 0xd6, 0xbf,
  0xf0, 0x1a, 0xc0, 0xb6, 0xc9, 0xe3, 0x2c, 0xdc, 0xb3, 0xdd, 0xd6, 0x90,
  0xe2, 0xdb, 0xe0, 0x4e, 0xe2, 0x01, 0x95, 0xf3, 0x00, 0x81, 0xe6, 0x07,
  0x38, 0xd3, 0x14, 0xf3, 0xb6, 0x52, 0xd4, 0x0d, 0xeb, 0x03, 0x0b, 0xd9,
  0x28, 0xe3, 0xf0, 0xe3, 0xb7, 0xe0, 0xf0, 0x10, 0xe1, 0x81, 0x1a, 0x0e,
  0x12, 0xeb, 0xf5, 0xc7, 0xe8, 0xe3, 0xaa, 0xe0, 0x08, 0x29, 0x0f, 0xeb,
  0x08, 0xf6, 0x1b, 0xcc, 0x2d, 0x38, 0x04, 0xab, 0x4b, 0xf7, 0xf1, 0x36,
  0x6a, 0x3a, 0x19, 0x2e, 0x27, 0x38, 0xbe, 0x06, 0x38, 0xda, 0xde, 0x34,
  0x0f, 0x62, 0x08, 0x02, 0x16, 0x08, 0xfd, 0x04, 0x5a, 0xf7, 0x00, 0x9d,
  0x54, 0x16, 0xc5, 0x30, 0xec, 0x99, 0x17, 0xec, 0xb4, 0x1a, 0x15, 0xa3,
  0x11, 0x4e, 0x9b, 0xca, 0xf2, 0xed, 0x25, 0x15, 0x2c, 0xa7, 0x4e, 0xe7,
  0xda, 0x18, 0xf1, 0xee, 0xdf, 0xce, 0x27, 0x68, 0xe2, 0xc9, 0x53, 0x5d,
  0xe4, 0xff, 0xef, 0xd6, 0x81, 0xe5, 0xf7, 0x08, 0xf7, 0x0c, 0x18, 0xcd,
  0x05, 0x4d, 0x62, 0xe7, 0x07, 0x97, 0x19, 0xef, 0x9f, 0xf6, 0xe6, 0x24,
  0xc7, 0x85, 0xf0, 0xec, 0x98, 0x1e, 0x30, 0x14, 0xe2, 0xff, 0xff, 0xff,
  0x04, 0x00, 0x00, 0x00, 0x10, 0x00, 0x00, 0x00, 0x27, 0x02, 0x00, 0x00,
  0x80, 0x00, 0x00, 0x00, 0x40, 0xff, 0xff, 0xff, 0x26, 0xff, 0xff, 0xff,
  0x00, 0x00, 0x06, 0x00, 0x08, 0x00, 0x04, 0x00, 0x06, 0x00, 0x00, 0x00,
  0x04, 0x00, 0x00, 0x00, 0x08, 0x00, 0x00, 0x00, 0x01, 0x00, 0x00, 0x00,
  0x02, 0x00, 0x00, 0x00, 0x18, 0xdc, 0xff, 0xff, 0x1c, 0xdc, 0xff, 0xff,
  0x0f, 0x00, 0x00, 0x00, 0x4d, 0x4c, 0x49, 0x52, 0x20, 0x43, 0x6f, 0x6e,
  0x76, 0x65, 0x72, 0x74, 0x65, 0x64, 0x2e, 0x00, 0x01, 0x00, 0x00, 0x00,
  0x14, 0x00, 0x00, 0x00, 0x00, 0x00, 0x0e, 0x00, 0x18, 0x00, 0x14, 0x00,
  0x10, 0x00, 0x0c, 0x00, 0x08, 0x00, 0x04, 0x00, 0x0e, 0x00, 0x00, 0x00,
  0x14, 0x00, 0x00, 0x00, 0x1c, 0x00, 0x00, 0x00, 0x4c, 0x02, 0x00, 0x00,
  0x50, 0x02, 0x00, 0x00, 0x54, 0x02, 0x00, 0x00, 0x04, 0x00, 0x00, 0x00,
  0x6d, 0x61, 0x69, 0x6e, 0x00, 0x00, 0x00, 0x00, 0x08, 0x00, 0x00, 0x00,
  0xe8, 0x01, 0x00, 0x00, 0x88, 0x01, 0x00, 0x00, 0x38, 0x01, 0x00, 0x00,
  0xf4, 0x00, 0x00, 0x00, 0xb4, 0x00, 0x00, 0x00, 0x80, 0x00, 0x00, 0x00,
  0x3c, 0x00, 0x00, 0x00, 0x04, 0x00, 0x00, 0x00, 0xa2, 0xfe, 0xff, 0xff,
  0x14, 0x00, 0x00, 0x00, 0x00, 0x00, 0x00, 0x08, 0x10, 0x00, 0x00, 0x00,
  0x14, 0x00, 0x00, 0x00, 0x03, 0x00, 0x00, 0x00, 0xac, 0xdc, 0xff, 0xff,
  0x01, 0x00, 0x00, 0x00, 0x17, 0x00, 0x00, 0x00, 0x03, 0x00, 0x00, 0x00,
  0x16, 0x00, 0x00, 0x00, 0x03, 0x00, 0x00, 0x00, 0x02, 0x00, 0x00, 0x00,
  0xd6, 0xfe, 0xff, 0xff, 0x1c, 0x00, 0x00, 0x00, 0x00, 0x00, 0x00, 0x08,
  0x1c, 0x00, 0x00, 0x00, 0x20, 0x00, 0x00, 0x00, 0x03, 0x00, 0x00, 0x00,
  0x00, 0x00, 0x06, 0x00, 0x08, 0x00, 0x07, 0x00, 0x06, 0x00, 0x00, 0x00,
  0x00, 0x00, 0x00, 0x01, 0x01, 0x00, 0x00, 0x00, 0x16, 0x00, 0x00, 0x00,
  0x03, 0x00, 0x00, 0x00, 0x15, 0x00, 0x00, 0x00, 0x05, 0x00, 0x00, 0x00,
  0x04, 0x00, 0x00, 0x00, 0x16, 0xff, 0xff, 0xff, 0x14, 0x00, 0x00, 0x00,
  0x00, 0x00, 0x00, 0x1b, 0x10, 0x00, 0x00, 0x00, 0x14, 0x00, 0x00, 0x00,
  0x02, 0x00, 0x00, 0x00, 0x20, 0xdd, 0xff, 0xff, 0x01, 0x00, 0x00, 0x00,
  0x15, 0x00, 0x00, 0x00, 0x02, 0x00, 0x00, 0x00, 0x14, 0x00, 0x00, 0x00,
  0x01, 0x00, 0x00, 0x00, 0xea, 0xfe, 0xff, 0xff, 0x10, 0x00, 0x00, 0x00,
  0x00, 0x00, 0x00, 0x01, 0x18, 0x00, 0x00, 0x00, 0x1c, 0x00, 0x00, 0x00,
  0xdc, 0xfe, 0xff, 0xff, 0x00, 0x00, 0x00, 0x01, 0x01, 0x00, 0x00, 0x00,
  0x01, 0x00, 0x00, 0x00, 0x01, 0x00, 0x00, 0x00, 0x14, 0x00, 0x00, 0x00,
