unsigned char model_exports_model_quant_tflite[] = {
  0x1c, 0x00, 0x00, 0x00, 0x54, 0x46, 0x4c, 0x33, 0x14, 0x00, 0x20, 0x00,
  0x1c, 0x00, 0x18, 0x00, 0x14, 0x00, 0x10, 0x00, 0x0c, 0x00, 0x00, 0x00,
  0x08, 0x00, 0x04, 0x00, 0x14, 0x00, 0x00, 0x00, 0x1c, 0x00, 0x00, 0x00,
  0x98, 0x00, 0x00, 0x00, 0xf0, 0x00, 0x00, 0x00, 0x88, 0x14, 0x00, 0x00,
  0x98, 0x14, 0x00, 0x00, 0xb8, 0x21, 0x00, 0x00, 0x03, 0x00, 0x00, 0x00,
  0x01, 0x00, 0x00, 0x00, 0x10, 0x00, 0x00, 0x00, 0x00, 0x00, 0x0a, 0x00,
  0x10, 0x00, 0x0c, 0x00, 0x08, 0x00, 0x04, 0x00, 0x0a, 0x00, 0x00, 0x00,
  0x0c, 0x00, 0x00, 0x00, 0x1c, 0x00, 0x00, 0x00, 0x3c, 0x00, 0x00, 0x00,
  0x0f, 0x00, 0x00, 0x00, 0x73, 0x65, 0x72, 0x76, 0x69, 0x6e, 0x67, 0x5f,
  0x64, 0x65, 0x66, 0x61, 0x75, 0x6c, 0x74, 0x00, 0x01, 0x00, 0x00, 0x00,
  0x04, 0x00, 0x00, 0x00, 0x90, 0xff, 0xff, 0xff, 0x16, 0x00, 0x00, 0x00,
  0x04, 0x00, 0x00, 0x00, 0x08, 0x00, 0x00, 0x00, 0x6f, 0x75, 0x74, 0x70,
  0x75, 0x74, 0x5f, 0x30, 0x00, 0x00, 0x00, 0x00, 0x01, 0x00, 0x00, 0x00,
  0x04, 0x00, 0x00, 0x00, 0x86, 0xec, 0xff, 0xff, 0x04, 0x00, 0x00, 0x00,
  0x0c, 0x00, 0x00, 0x00, 0x6b, 0x65, 0x72, 0x61, 0x73, 0x5f, 0x74, 0x65,
  0x6e, 0x73, 0x6f, 0x72, 0x00, 0x00, 0x00, 0x00, 0x02, 0x00, 0x00, 0x00,
  0x34, 0x00, 0x00, 0x00, 0x04, 0x00, 0x00, 0x00, 0xdc, 0xff, 0xff, 0xff,
  0x19, 0x00, 0x00, 0x00, 0x04, 0x00, 0x00, 0x00, 0x13, 0x00, 0x00, 0x00,
  0x43, 0x4f, 0x4e, 0x56, 0x45, 0x52, 0x53, 0x49, 0x4f, 0x4e, 0x5f, 0x4d,
  0x45, 0x54, 0x41, 0x44, 0x41, 0x54, 0x41, 0x00, 0x08, 0x00, 0x0c, 0x00,
  0x08, 0x00, 0x04, 0x00, 0x08, 0x00, 0x00, 0x00, 0x18, 0x00, 0x00, 0x00,
  0x04, 0x00, 0x00, 0x00, 0x13, 0x00, 0x00, 0x00, 0x6d, 0x69, 0x6e, 0x5f,
  0x72, 0x75, 0x6e, 0x74, 0x69, 0x6d, 0x65, 0x5f, 0x76, 0x65, 0x72, 0x73,
  0x69, 0x6f, 0x6e, 0x00, 0x1a, 0x00, 0x00, 0x00, 0x94, 0x13, 0x00, 0x00,
  0x8c, 0x13, 0x00, 0x00, 0xfc, 0x12, 0x00, 0x00, 0xa4, 0x12, 0x00, 0x00,
  0x54, 0x12, 0x00, 0x00, 0x24, 0x12, 0x00, 0x00, 0x04, 0x12, 0x00, 0x00,
  0xf4, 0x09, 0x00, 0x00, 0xa4, 0x07, 0x00, 0x00, 0x94, 0x05, 0x00, 0x00,
  0x64, 0x04, 0x00, 0x00, 0x54, 0x02, 0x00, 0x00, 0x3c, 0x02, 0x00, 0x00,
  0x0c, 0x01, 0x00, 0x00, 0xdc, 0x00, 0x00, 0x00, 0xd4, 0x00, 0x00, 0x00,
  0xcc, 0x00, 0x00, 0x00, 0xc4, 0x00, 0x00, 0x00, 0xbc, 0x00, 0x00, 0x00,
  0xb4, 0x00, 0x00, 0x00, 0xac, 0x00, 0x00, 0x00, 0xa4, 0x00, 0x00, 0x00,
  0x9c, 0x00, 0x00, 0x00, 0x94, 0x00, 0x00, 0x00, 0x74, 0x00, 0x00, 0x00,
  0x04, 0x00, 0x00, 0x00, 0x6a, 0xed, 0xff, 0xff, 0x04, 0x00, 0x00, 0x00,
  0x60, 0x00, 0x00, 0x00, 0x0c, 0x00, 0x00, 0x00, 0x08, 0x00, 0x0e, 0x00,
  0x08, 0x00, 0x04, 0x00, 0x08, 0x00, 0x00, 0x00, 0x10, 0x00, 0x00, 0x00,
  0x28, 0x00, 0x00, 0x00, 0x00, 0x00, 0x06, 0x00, 0x08, 0x00, 0x04, 0x00,
  0x06, 0x00, 0x00, 0x00, 0x04, 0x00, 0x00, 0x00, 0x01, 0x00, 0x00, 0x00,
  0xea, 0x03, 0x00, 0x00, 0x0c, 0x00, 0x18, 0x00, 0x14, 0x00, 0x10, 0x00,
  0x0c, 0x00, 0x04, 0x00, 0x0c, 0x00, 0x00, 0x00, 0x17, 0x1c, 0x2d, 0xdd,
  0x53, 0xf8, 0xc7, 0xa0, 0x02, 0x00, 0x00, 0x00, 0x02, 0x00, 0x00, 0x00,
  0x04, 0x00, 0x00, 0x00, 0x06, 0x00, 0x00, 0x00, 0x32, 0x2e, 0x32, 0x30,
  0x2e, 0x30, 0x00, 0x00, 0xd6, 0xed, 0xff, 0xff, 0x04, 0x00, 0x00, 0x00,
  0x10, 0x00, 0x00, 0x00, 0x31, 0x2e, 0x36, 0x2e, 0x30, 0x00, 0x00, 0x00,
  0x00, 0x00, 0x00, 0x00, 0x00, 0x00, 0x00, 0x00, 0x60, 0xe0, 0xff, 0xff,
  0x64, 0xe0, 0xff, 0xff, 0x68, 0xe0, 0xff, 0xff, 0x6c, 0xe0, 0xff, 0xff,
  0x70, 0xe0, 0xff, 0xff, 0x74, 0xe0, 0xff, 0xff, 0x78, 0xe0, 0xff, 0xff,
  0x7c, 0xe0, 0xff, 0xff, 0x80, 0xe0, 0xff, 0xff, 0x16, 0xee, 0xff, 0xff,
  0x04, 0x00, 0x00, 0x00, 0x20, 0x00, 0x00, 0x00, 0x5b, 0xbf, 0x4d, 0xbe,
  0x1b, 0xc3, 0xe7, 0x3c, 0xa8, 0x5a, 0xe6, 0xbd, 0x44, 0x8f, 0xcf, 0xbb,
  0x39, 0xda, 0x93, 0xbe, 0x7a, 0xed, 0x0f, 0xbe, 0xa4, 0xed, 0x63, 0xbd,
  0x52, 0xed, 0x6c, 0xbe, 0x42, 0xee, 0xff, 0xff, 0x04, 0x00, 0x00, 0x00,
  0x20, 0x01, 0x00, 0x00, 0x1c, 0xf8, 0x00, 0x3f, 0xe1, 0xc7, 0xd2, 0x3e,
  0x80, 0x27, 0xc6, 0xbd, 0xae, 0x43, 0x09, 0x3f, 0x91, 0x9c, 0x14, 0x3f,
  0x7f, 0x9c, 0xcf, 0xbc, 0xe5, 0x26, 0xed, 0x3e, 0x06, 0xc2, 0x9c, 0x3e,
  0xc6, 0xa5, 0xf3, 0x3d, 0x00, 0x39, 0x2b, 0x3f, 0x5a, 0x2f, 0xb9, 0xbe,
  0x22, 0x8c, 0x42, 0xbd, 0x0f, 0xf2, 0x1c, 0x3f, 0xde, 0x41, 0xd8, 0xbd,
  0x21, 0x8c, 0x68, 0xbe, 0x9d, 0x12, 0xca, 0x3e, 0x43, 0xb3, 0x9d, 0xbd,
  0x3c, 0xac, 0x8d, 0xbe, 0x1f, 0x54, 0xc8, 0xbe, 0x2b, 0x7e, 0xe0, 0xbe,
  0xb7, 0x94, 0x25, 0x3f, 0xc6, 0x88, 0x0a, 0xbf, 0xe0, 0xd9, 0xa6, 0xbe,
  0x46, 0x48, 0xb0, 0x3e, 0x78, 0xb0, 0xd5, 0xbe, 0xd6, 0x20, 0x75, 0xbe,
  0xf6, 0xdc, 0x48, 0xbd, 0x3b, 0x31, 0x21, 0x3e, 0x55, 0x5f, 0x80, 0xba,
  0x81, 0x0e, 0x2c, 0x3f, 0x2b, 0x55, 0x57, 0xbe, 0x22, 0x3e, 0xec, 0xbe,
  0x63, 0x83, 0x9f, 0xbe, 0x05, 0x2a, 0xfa, 0xbe, 0x04, 0x1d, 0xfc, 0xbe,
  0x8e, 0xfd, 0x21, 0x3e, 0x14, 0xe3, 0x92, 0xbe, 0x29, 0xa7, 0x03, 0x3f,
  0x13, 0xf4, 0x8c, 0x3e, 0x94, 0x16, 0x22, 0xbe, 0xba, 0x31, 0xa9, 0x3e,
  0xe0, 0x9a, 0x04, 0x3f, 0xe9, 0xba, 0x87, 0xbe, 0x44, 0x96, 0x43, 0x3e,
  0xe7, 0x1e, 0x49, 0x3f, 0xd0, 0xa1, 0x36, 0xbc, 0xa1, 0x4b, 0xee, 0x3d,
  0x3d, 0xc5, 0xf7, 0xbe, 0x5f, 0x85, 0x92, 0xbd, 0x9c, 0xdb, 0x69, 0x3e,
  0xb6, 0x82, 0x10, 0xbf, 0xba, 0x1b, 0x10, 0xbe, 0x52, 0xaf, 0x84, 0x3e,
  0xaf, 0x48, 0xfd, 0xbe, 0xd8, 0xd0, 0x8e, 0x3e, 0xb0, 0x03, 0xf7, 0xbd,
  0x6b, 0x1d, 0x14, 0xbf, 0x53, 0xe3, 0x24, 0x3f, 0x17, 0x76, 0x11, 0x3f,
  0x60, 0x37, 0xb9, 0xbe, 0xeb, 0x18, 0x4c, 0x3e, 0x65, 0x32, 0xb1, 0xbc,
  0x83, 0x79, 0x57, 0xbd, 0xde, 0x0d, 0x69, 0xbe, 0x6d, 0x53, 0x01, 0x3f,
  0xe8, 0xcf, 0xba, 0xbe, 0x66, 0x73, 0x55, 0xbe, 0x81, 0xbd, 0xeb, 0x3e,
  0x8f, 0x66, 0x02, 0xbf, 0x60, 0x7a, 0x1b, 0x3b, 0x8b, 0x10, 0x31, 0x3f,
  0x60, 0xc6, 0x2a, 0xbf, 0x6e, 0xef, 0xff, 0xff, 0x04, 0x00, 0x00, 0x00,
  0x08, 0x00, 0x00, 0x00, 0x01, 0x00, 0x00, 0x00, 0x02, 0x00, 0x00, 0x00,
  0x82, 0xef, 0xff, 0xff, 0x04, 0x00, 0x00, 0x00, 0x00, 0x02, 0x00, 0x00,
  0x4a, 0x6c, 0xae, 0x3d, 0xb1, 0x5f, 0x88, 0xbe, 0x54, 0x71, 0x60, 0xbc,
  0xe9, 0x76, 0x8f, 0xbe, 0x8d, 0x9f, 0x19, 0xbf, 0x11, 0x5d, 0x15, 0xbd,
  0x72, 0xaa, 0xfc, 0xbe, 0x83, 0x41, 0x04, 0xbf, 0x19, 0x5e, 0x1a, 0xbf,
  0x0a, 0x2c, 0x20, 0xbd, 0xa3, 0x0a, 0xdd, 0xbe, 0x9b, 0xe1, 0x5f, 0x3e,
  0xe8, 0x59, 0x6c, 0xbe, 0x19, 0x6b, 0x39, 0xbe, 0x8d, 0x64, 0x59, 0xbe,
  0x1c, 0xc0, 0x63, 0xbe, 0xa2, 0xed, 0x01, 0x3e, 0xea, 0x0e, 0x80, 0x3f,
  0x01, 0xa0, 0xcf, 0x3e, 0x66, 0x3f, 0xe9, 0xbe, 0x9b, 0x29, 0x3e, 0x3e,
  0x75, 0xe5, 0x09, 0xbf, 0xcf, 0xcd, 0xa5, 0xbe, 0x1c, 0xdd, 0xa7, 0xbe,
  0xd6, 0x8b, 0x0c, 0x3e, 0x77, 0x8a, 0x78, 0x3e, 0xe1, 0xf1, 0x5a, 0x3e,
  0x21, 0x75, 0x54, 0xbc, 0x3a, 0xfe, 0xf7, 0xbd, 0x77, 0x77, 0xcf, 0x3e,
  0xa3, 0x13, 0x0b, 0xbf, 0xeb, 0xe9, 0x65, 0xbf, 0xd3, 0xb8, 0x2e, 0xbe,
  0x15, 0x43, 0x78, 0xbd, 0xe7, 0x15, 0x4e, 0x3e, 0xee, 0xc5, 0xe4, 0xbc,
  0x46, 0x74, 0xdf, 0x3d, 0x22, 0x1b, 0x9d, 0x3e, 0xe6, 0x25, 0x01, 0x3f,
  0x88, 0xec, 0x00, 0xbe, 0xa8, 0x4d, 0x1a, 0x3e, 0x06, 0xb6, 0x2c, 0x3f,
  0x07, 0x4c, 0x11, 0x3f, 0xe5, 0x99, 0x00, 0x3f, 0x00, 0x49, 0x06, 0xbe,
  0xac, 0x8c, 0x12, 0x3f, 0x7b, 0xc6, 0x3a, 0x3f, 0x75, 0x18, 0xbf, 0xbe,
  0xc9, 0x22, 0xb9, 0x3e, 0xcc, 0x53, 0x8b, 0xbd, 0x84, 0x39, 0x3c, 0x3e,
  0x30, 0x7e, 0x2e, 0x3f, 0x16, 0x7d, 0xfd, 0xbe, 0x20, 0xf2, 0xd1, 0x3c,
  0x26, 0xce, 0xb7, 0xbe, 0xc6, 0x00, 0xdc, 0xbd, 0xd0, 0x94, 0xa7, 0x3e,
  0x05, 0x5c, 0x7a, 0x3e, 0xce, 0xfc, 0xa3, 0xbe, 0x07, 0xd2, 0xec, 0x3c,
  0xdd, 0x82, 0xf5, 0x3e, 0xd5, 0xbe, 0x91, 0x3d, 0xdb, 0xc8, 0x39, 0x3e,
  0xd1, 0x4b, 0x95, 0xbe, 0x2b, 0xaf, 0x57, 0xbe, 0x07, 0x25, 0x6d, 0x3e,
  0x8a, 0xad, 0x29, 0x3e, 0xe3, 0x21, 0x42, 0xbe, 0x26, 0xf6, 0xaf, 0xbe,
  0x90, 0xdf, 0x86, 0x3e, 0xc8, 0xca, 0x0e, 0x3e, 0x83, 0x38, 0xa2, 0xbd,
  0xc3, 0x70, 0xa9, 0x3e, 0x07, 0xbc, 0x80, 0xbe, 0xb3, 0xb6, 0x98, 0x3e,
  0x07, 0xbc, 0xc5, 0x3d, 0x1e, 0xa8, 0x98, 0x3e, 0x52, 0xde, 0x21, 0xbe,
  0xf5, 0x4f, 0x1f, 0xbd, 0x11, 0x27, 0xc1, 0xbd, 0x7f, 0xa7, 0x88, 0xbe,
  0xb1, 0x6a, 0xd2, 0xbe, 0xb8, 0xc9, 0xe0, 0xbd, 0xf1, 0x51, 0x8f, 0x3d,
  0x19, 0xb0, 0x95, 0x3e, 0x9a, 0xd8, 0x88, 0xbe, 0xa1, 0x9d, 0x42, 0x3d,
  0x47, 0x8e, 0x7e, 0x3e, 0xcd, 0xb5, 0x74, 0xbe, 0x99, 0x9f, 0xdc, 0xbe,
  0xaf, 0x72, 0x5b, 0x3f, 0xe6, 0xc4, 0xf1, 0xbe, 0xaa, 0x79, 0xac, 0x3e,
  0xfa, 0x0a, 0x29, 0xba, 0xa6, 0x9d, 0x91, 0x3e, 0x3d, 0xbc, 0x24, 0x3f,
  0xd1, 0xf4, 0x5b, 0xbd, 0x0f, 0x09, 0x6f, 0x3e, 0x38, 0x06, 0x6f, 0xbf,
  0xdb, 0x12, 0xe0, 0x3e, 0xc5, 0xf6, 0x03, 0x3f, 0x57, 0x47, 0x12, 0xbf,
  0x16, 0x00, 0x48, 0xbf, 0x9b, 0x0c, 0x11, 0x3e, 0x64, 0xf8, 0x43, 0xbe,
  0xb0, 0x08, 0x3d, 0xbe, 0x91, 0x7f, 0xdb, 0x3c, 0x39, 0xed, 0x05, 0xbf,
  0x1f, 0x38, 0x92, 0xbe, 0xdf, 0xe0, 0xf1, 0x3d, 0x91, 0x02, 0x3b, 0xbf,
  0x68, 0x3e, 0x8b, 0x3d, 0xc0, 0x3e, 0x35, 0x3e, 0xcc, 0xf5, 0xe7, 0xbe,
  0xaa, 0x4f, 0x45, 0x3e, 0x2a, 0x6b, 0xda, 0xbd, 0xa8, 0xa8, 0x7b, 0x3e,
  0x26, 0x88, 0xa3, 0xbe, 0xa1, 0x03, 0x2c, 0xbc, 0x6d, 0xe0, 0x9f, 0x3d,
  0x7a, 0xfe, 0xa5, 0x3e, 0xc8, 0xcc, 0x1b, 0xbc, 0x5f, 0xd2, 0x89, 0xbe,
  0xd7, 0xe4, 0xf3, 0x3e, 0x05, 0xd1, 0x83, 0xbe, 0xc0, 0xa6, 0xd8, 0xbc,
  0xce, 0xd3, 0x03, 0xbf, 0xfe, 0x0d, 0x89, 0xbf, 0x8e, 0xf1, 0xff, 0xff,
  0x04, 0x00, 0x00, 0x00, 0x20, 0x01, 0x00, 0x00, 0x06, 0x16, 0x61, 0xbe,
  0xc6, 0x29, 0x1d, 0xbf, 0x46, 0x75, 0x9e, 0xbd, 0x41, 0xfd, 0x13, 0xbc,
  0x8f, 0xfc, 0x6a, 0xbe, 0x59, 0x10, 0xf2, 0xbd, 0xa1, 0x43, 0x38, 0x3f,
  0xee, 0xf4, 0x87, 0x3e, 0x9c, 0xe9, 0x4e, 0x3d, 0x77, 0xde, 0xa3, 0x3e,
  0x2f, 0x29, 0xb6, 0xbd, 0x51, 0xa8, 0xfe, 0x3d, 0x88, 0xea, 0x8c, 0xbe,
  0x5d, 0x49, 0xd6, 0x3e, 0x60, 0xb8, 0xc8, 0x3c, 0xfd, 0x4f, 0xa1, 0xbe,
  0x7c, 0xe4, 0xb3, 0x3e, 0x8e, 0xe5, 0x3a, 0x3e, 0x61, 0x10, 0x0a, 0x3f,
  0x51, 0x38, 0x09, 0xbe, 0xb6, 0x21, 0x64, 0x3e, 0x53, 0xe9, 0xbd, 0x3e,
  0x7d, 0xad, 0xa3, 0x3e, 0xa4, 0x3d, 0xfe, 0x3d, 0x70, 0xd3, 0x0a, 0xbf,
  0xd7, 0x6a, 0xf6, 0xbe, 0x80, 0x25, 0x87, 0x3e, 0x05, 0x82, 0x21, 0x3e,
  0x7a, 0xbd, 0xdd, 0x3d, 0xdf, 0xc6, 0xa7, 0x3d, 0x8c, 0x56, 0x07, 0x3f,
  0x97, 0xb2, 0xc4, 0x3e, 0xb5, 0xc2, 0xf5, 0x3d, 0xd4, 0xc2, 0xe9, 0x3e,
  0x2d, 0xa1, 0x8d, 0x3d, 0x42, 0xbb, 0x44, 0x3e, 0x07, 0x91, 0xa0, 0x3e,
  0x4f, 0x22, 0xbe, 0x3e, 0xbe, 0x2d, 0x2a, 0x3e, 0x3c, 0x1e, 0xde, 0x3d,
  0x1a, 0x37, 0xb0, 0x3e, 0xae, 0xa0, 0xb0, 0xbe, 0x93, 0x03, 0x10, 0x3f,
  0x02, 0x6d, 0xce, 0xbc, 0x25, 0x97, 0x18, 0x3d, 0x00, 0x94, 0xee, 0x3e,
  0xd4, 0x14, 0x70, 0x3e, 0x23, 0x30, 0xdf, 0x3e, 0xdf, 0xe2, 0xef, 0xbd,
  0x14, 0x5f, 0x34, 0xbe, 0x6d, 0xaa, 0x33, 0xbe, 0x56, 0xe5, 0x00, 0x3f,
  0xbf, 0xef, 0x1e, 0xbd, 0x00, 0xb0, 0xe4, 0x3d, 0x1e, 0xbf, 0x43, 0x3e,
  0xba, 0xec, 0x18, 0x3c, 0xb0, 0x8b, 0xf7, 0x3d, 0x56, 0xd5, 0x00, 0x3f,
  0x66, 0x55, 0x55, 0x3d, 0x6b, 0x75, 0x73, 0x3e, 0x13, 0x3a, 0xf4, 0x3e,
  0x26, 0x06, 0x1b, 0x3e, 0xd6, 0x41, 0xb4, 0x3e, 0x2f, 0x50, 0x81, 0xbe,
  0x5b, 0x57, 0xb1, 0x3e, 0x09, 0x63, 0x95, 0xbd, 0x88, 0xbe, 0x08, 0x3f,
  0xe2, 0x77, 0xef, 0xbd, 0x49, 0x4c, 0x4f, 0x3b, 0x50, 0x2f, 0xf4, 0x3e,
  0x32, 0xec, 0x0f, 0xbe, 0xb4, 0x5d, 0x57, 0x3e, 0xba, 0xf2, 0xff, 0xff,
  0x04, 0x00, 0x00, 0x00, 0x00, 0x02, 0x00, 0x00, 0x58, 0x00, 0x16, 0x3f,
  0x4b, 0x08, 0x80, 0xbe, 0x32, 0xfa, 0x14, 0x3d, 0xd8, 0xa6, 0x4d, 0x3e,
  0x6e, 0x82, 0xeb, 0x3e, 0xe2, 0xd6, 0x95, 0xbd, 0xa3, 0x16, 0xc9, 0xbe,
  0x57, 0x69, 0x98, 0xbf, 0xcb, 0xa5, 0xe6, 0x3d, 0x59, 0x07, 0xb7, 0xbe,
  0xa7, 0xf0, 0x41, 0x3e, 0xa4, 0x4b, 0x11, 0x3f, 0xc4, 0x28, 0x79, 0xbf,
  0x29, 0x77, 0xa4, 0xbe, 0x57, 0x3d, 0xfa, 0xbd, 0x73, 0xe5, 0xf2, 0x3e,
  0xa4, 0xf9, 0xa1, 0xbd, 0x54, 0x93, 0x8a, 0xbe, 0x66, 0x55, 0x00, 0x3f,
  0x15, 0xa5, 0x00, 0xbf, 0x69, 0xbd, 0x45, 0x3e, 0xaf, 0x0c, 0xea, 0x3e,
  0x3c, 0xac, 0x17, 0x3f, 0xe8, 0x6a, 0x00, 0x3f, 0xe7, 0xb9, 0x93, 0xbc,
  0x3d, 0x51, 0x02, 0x3f, 0x66, 0x1e, 0xdc, 0x3c, 0x1d, 0x87, 0xad, 0xbe,
  0xfb, 0x47, 0x65, 0x3d, 0x17, 0x6b, 0x2a, 0x3f, 0x6f, 0xdf, 0x41, 0xbd,
  0xa1, 0x40, 0x54, 0xbe, 0xde, 0xd6, 0xf2, 0x3e, 0x57, 0xe8, 0x0b, 0x3f,
  0x59, 0x8f, 0x1f, 0x3f, 0x00, 0x2e, 0xad, 0x3e, 0xf8, 0xf5, 0xa8, 0xbe,
  0xb1, 0x07, 0xfc, 0x3e, 0xf3, 0xda, 0x04, 0x3f, 0x12, 0xf5, 0x43, 0x3f,
  0x14, 0x7a, 0x08, 0xbf, 0x60, 0xc8, 0x22, 0xbe, 0x46, 0x9f, 0x06, 0x3f,
  0x25, 0x25, 0x5c, 0x3e, 0xfa, 0xf8, 0xd9, 0x3e, 0xfc, 0x2e, 0x89, 0x3d,
  0x36, 0x3b, 0x94, 0x3e, 0xb5, 0x16, 0xde, 0x3e, 0x22, 0x36, 0x13, 0x3f,
  0x4e, 0x65, 0x60, 0x3e, 0xc8, 0x90, 0xb0, 0xbe, 0xc8, 0xf4, 0xac, 0x3e,
  0x04, 0xc2, 0xd0, 0x3d, 0x9e, 0x5e, 0x9b, 0x3d, 0x7f, 0x19, 0xad, 0xbd,
  0x3c, 0x25, 0x4f, 0xbe, 0x6b, 0xaf, 0x80, 0xbe, 0x67, 0x98, 0x4f, 0x3e,
  0xc3, 0x45, 0xf8, 0x3e, 0xfb, 0x96, 0xca, 0x3e, 0x99, 0xa8, 0xa7, 0x3b,
  0x23, 0x8a, 0x07, 0xbf, 0x6a, 0xca, 0x16, 0x3f, 0xc3, 0x6f, 0xd2, 0xbe,
  0xe8, 0xf7, 0x29, 0x3e, 0x4e, 0x34, 0x4a, 0xbf, 0xa8, 0x01, 0x20, 0x3e,
  0x72, 0x8b, 0x8f, 0x3e, 0x67, 0x2b, 0x3b, 0x3e, 0x00, 0x88, 0x30, 0x3f,
  0x94, 0x39, 0x91, 0xbe, 0x53, 0x91, 0xf6, 0xbe, 0x30, 0x6b, 0xc4, 0xbe,
  0x03, 0x4e, 0xb0, 0x3d, 0x01, 0x80, 0xeb, 0x3e, 0xc2, 0xd0, 0xb9, 0x3e,
  0x79, 0x00, 0x0d, 0x3d, 0x98, 0x6e, 0x67, 0xbe, 0x50, 0x2f, 0xda, 0x3e,
  0x0e, 0x19, 0x8f, 0x3e, 0x40, 0xf6, 0x6a, 0x3e, 0x94, 0xb5, 0x0c, 0x3f,
  0x72, 0x68, 0x3f, 0xbf, 0x3c, 0xca, 0x18, 0xbe, 0xfc, 0x1c, 0x0a, 0xbf,
  0xf6, 0xba, 0x77, 0x3e, 0xcd, 0xad, 0xb2, 0x3e, 0x57, 0x8f, 0xe2, 0x3d,
  0xf6, 0xcc, 0xb0, 0xbe, 0x32, 0x39, 0xc4, 0xbe, 0x88, 0x1e, 0x0c, 0x3f,
  0x30, 0xca, 0xe6, 0x3e, 0xaf, 0xcb, 0xe6, 0x3d, 0x19, 0x15, 0xb5, 0xbe,
  0xa3, 0xab, 0xc9, 0x3e, 0xbd, 0x34, 0x19, 0x3e, 0x42, 0x69, 0x5f, 0x3e,
  0xd7, 0xd9, 0xf8, 0xbe, 0xd5, 0x65, 0xfc, 0x3e, 0xf8, 0xb6, 0xbf, 0x3e,
  0x20, 0x73, 0x8d, 0xbe, 0x70, 0x94, 0x0d, 0xbf, 0xb1, 0x5c, 0x66, 0xbe,
  0xc9, 0x84, 0x4f, 0x3f, 0xce, 0x6f, 0x24, 0x3f, 0x34, 0x4b, 0x2b, 0xbf,
  0xff, 0xab, 0x44, 0xbe, 0xbf, 0x19, 0x26, 0x3e, 0xa3, 0x1e, 0x71, 0xbc,
  0xdd, 0x00, 0xbe, 0x3e, 0xad, 0x99, 0x7b, 0xbe, 0x54, 0x18, 0xe8, 0xbe,
  0x55, 0x05, 0x18, 0xbd, 0xc5, 0x3f, 0x3f, 0xbe, 0x3e, 0x32, 0x95, 0x3c,
  0x95, 0x23, 0x89, 0x3c, 0x48, 0xca, 0x58, 0x3e, 0x10, 0xdf, 0xe0, 0xbe,
  0xd6, 0x8b, 0x63, 0x3a, 0xf8, 0x15, 0x7e, 0x3e, 0xf4, 0xa8, 0x93, 0xbe,
  0x8f, 0x9c, 0xed, 0xbd, 0x13, 0xe7, 0xdf, 0xbe, 0x82, 0xa3, 0x37, 0x3f,
  0xb2, 0x88, 0x7e, 0x3b, 0x4e, 0xf1, 0x43, 0xbe, 0x96, 0x10, 0xfc, 0x3e,
  0x17, 0xe8, 0xde, 0x3d, 0xc6, 0xf4, 0xff, 0xff, 0x04, 0x00, 0x00, 0x00,
  0x40, 0x02, 0x00, 0x00, 0x67, 0x7a, 0x24, 0xbd, 0x95, 0xef, 0x3f, 0x3e,
  0x7d, 0xa6, 0xb1, 0x3e, 0x6f, 0x6f, 0x5b, 0x3e, 0x17, 0x44, 0x25, 0x3e,
  0xf4, 0x4a, 0x2b, 0xbe, 0xf4, 0xc9, 0x82, 0xbd, 0xc7, 0x80, 0x7a, 0x3e,
  0x74, 0xda, 0x18, 0x3c, 0x8c, 0xd7, 0xc1, 0x3b, 0xd0, 0x38, 0xef, 0xbe,
  0xf3, 0xc6, 0xd1, 0xbe, 0xee, 0xdf, 0xa9, 0x3e, 0x37, 0x52, 0x3e, 0x3e,
  0x51, 0x08, 0xb0, 0xbd, 0xf1, 0x3b, 0xb8, 0x3e, 0xaa, 0x77, 0x5f, 0x3e,
  0x14, 0xb8, 0x40, 0x3e, 0x0e, 0x09, 0xcf, 0x3e, 0xe4, 0xe4, 0x7d, 0x3e,
  0x85, 0x94, 0x8c, 0xbd, 0x7f, 0xf9, 0xc6, 0x3d, 0xcb, 0x69, 0x33, 0x3e,
  0xec, 0x92, 0xcf, 0x3e, 0xdc, 0x50, 0xd5, 0x3d, 0x90, 0x69, 0x39, 0xbe,
  0x43, 0xe1, 0xa6, 0x3e, 0x8e, 0x28, 0xfb, 0x3d, 0x37, 0x09, 0x0f, 0xbf,
  0xdb, 0xb5, 0x03, 0x3f, 0xa7, 0xa5, 0x5b, 0xbe, 0xc6, 0x81, 0xd9, 0x3e,
  0xa3, 0x55, 0x99, 0x3e, 0x63, 0x91, 0xee, 0xbe, 0xbb, 0xcb, 0x15, 0x3e,
  0x57, 0x26, 0xd9, 0x3e, 0x2c, 0x4d, 0x56, 0xbe, 0xf8, 0xbf, 0x4f, 0x3d,
  0xcd, 0x2a, 0x8f, 0x3d, 0xca, 0xc4, 0xda, 0x3e, 0x22, 0x63, 0xe6, 0x3e,
  0xc0, 0xbe, 0x7f, 0x3d, 0x6f, 0x08, 0xd2, 0x3d, 0xd9, 0xbb, 0x0c, 0x3e,
  0x81, 0x1c, 0x95, 0xbd, 0x1d, 0xc5, 0xf0, 0xbd, 0x4e, 0x77, 0xa3, 0xbd,
  0xe0, 0x1f, 0x00, 0x3e, 0x82, 0xc0, 0x87, 0x3e, 0x6d, 0xa3, 0xef, 0x3e,
  0x9a, 0xd8, 0x7c, 0x3d, 0xc9, 0xac, 0x46, 0x3d, 0x72, 0xe4, 0x77, 0x3e,
  0x7a, 0xc1, 0x02, 0x3e, 0x9f, 0x3f, 0xa2, 0x3d, 0x5f, 0x7c, 0x70, 0x3d,
  0x6c, 0xaf, 0x65, 0x3d, 0xfa, 0x55, 0x62, 0x3e, 0x00, 0x94, 0xda, 0xbe,
  0x2e, 0xfc, 0xbe, 0xbe, 0xa3, 0x2c, 0xb9, 0x3e, 0xbd, 0x30, 0xec, 0x3e,
  0x34, 0xcb, 0x81, 0xbd, 0x89, 0xaa, 0xcf, 0x3e, 0x55, 0xaa, 0xf0, 0x3e,
  0x12, 0x1c, 0xce, 0x3e, 0x77, 0x21, 0x81, 0x3e, 0x13, 0xf4, 0x5b, 0x3c,
  0xd2, 0xd2, 0x8c, 0x3c, 0x2c, 0x8b, 0xc4, 0x3d, 0x74, 0xea, 0x23, 0x3e,
  0x2d, 0xcc, 0xc0, 0x3e, 0x8e, 0xdc, 0xf1, 0xbc, 0x33, 0x12, 0x8b, 0xbd,
  0xd6, 0xeb, 0xb7, 0x3e, 0x21, 0xb5, 0x9d, 0x3e, 0xeb, 0x7a, 0xc6, 0xbe,
  0x23, 0x4f, 0x4f, 0x3e, 0x40, 0x98, 0x47, 0xbe, 0x02, 0x2a, 0xee, 0x3e,
  0xdd, 0x23, 0xe9, 0x3e, 0xbc, 0x31, 0xc9, 0xbe, 0x0e, 0x67, 0x4b, 0x3e,
  0x95, 0xf4, 0x20, 0x3f, 0xb0, 0x41, 0xfe, 0xbd, 0xc6, 0xa4, 0x3d, 0x3d,
  0x40, 0x97, 0xe2, 0x3d, 0xe1, 0x38, 0x83, 0x3e, 0xd3, 0xb1, 0x99, 0x3e,
  0x50, 0xd1, 0x4c, 0x3e, 0x6c, 0xa4, 0x01, 0x3d, 0xd5, 0xed, 0xa2, 0x3e,
  0xcf, 0x5b, 0x00, 0x3c, 0x33, 0x63, 0x01, 0x3e, 0x0e, 0x17, 0xa8, 0xbc,
  0x7c, 0xe1, 0x8b, 0x3d, 0x60, 0xfb, 0x10, 0x3f, 0xbe, 0xcd, 0xa2, 0xbd,
  0xcf, 0xda, 0x20, 0x3e, 0xd6, 0x27, 0x87, 0xbd, 0x10, 0x15, 0x77, 0x3e,
  0xb2, 0xbe, 0x4c, 0x3e, 0xbb, 0x41, 0xea, 0x3d, 0xa5, 0x73, 0xaf, 0x3d,
  0x50, 0xbc, 0xad, 0x3e, 0xa1, 0x05, 0x81, 0x3e, 0x25, 0x3d, 0x31, 0xbf,
  0xe2, 0xcf, 0x1f, 0xbe, 0x97, 0xc5, 0x05, 0x3e, 0x0f, 0xb4, 0xea, 0x3e,
  0x6b, 0x2b, 0x0d, 0xbe, 0x08, 0xc5, 0x81, 0x3d, 0x83, 0x4f, 0xfd, 0x3e,
  0x53, 0x65, 0x40, 0x3e, 0x67, 0x64, 0x4c, 0x3e, 0xf6, 0xaf, 0x4d, 0xbd,
  0xb1, 0xb1, 0xa2, 0xbd, 0xed, 0xc2, 0x50, 0x3e, 0x72, 0xb6, 0x41, 0x3e,
  0xc9, 0x3d, 0xf5, 0x3d, 0x69, 0xaf, 0x58, 0x3e, 0xe7, 0x21, 0x34, 0x3e,
  0x3b, 0xdf, 0x02, 0x3f, 0x33, 0xac, 0xe5, 0x3d, 0xe8, 0x6f, 0x03, 0xbf,
  0x35, 0x44, 0xfd, 0x3e, 0x4b, 0x4c, 0xbf, 0xbd, 0xcb, 0xf4, 0x9a, 0x3e,
  0x05, 0xc7, 0xdf, 0x3e, 0xdf, 0xa1, 0xe9, 0xbe, 0xda, 0x3c, 0x49, 0x3e,
  0xb5, 0x9b, 0xd1, 0x3e, 0x35, 0xc5, 0xc1, 0xbe, 0x8d, 0x59, 0x9a, 0x3e,
  0x81, 0xb3, 0x81, 0xbd, 0xaf, 0x21, 0x24, 0x3e, 0x5a, 0xad, 0xf0, 0x3e,
  0xcf, 0x9e, 0x17, 0x3e, 0xb1, 0xd0, 0x8a, 0x3e, 0x18, 0xd3, 0xc7, 0x3e,
  0x0a, 0xdf, 0x4a, 0xbd, 0xea, 0x91, 0x10, 0x3e, 0xb6, 0x30, 0x8a, 0xba,
  0xb7, 0x49, 0xcf, 0x3d, 0x12, 0xf7, 0xff, 0xff, 0x04, 0x00, 0x00, 0x00,
  0x00, 0x08, 0x00, 0x00, 0x5e, 0xd0, 0xb3, 0xbd, 0x0d, 0x47, 0x8f, 0x3e,
  0xa2, 0xcb, 0x12, 0xbe, 0x13, 0x0a, 0xae, 0xbe, 0xe8, 0x4d, 0x92, 0xbd,
  0x15, 0x80, 0xce, 0x3d, 0x44, 0x89, 0x81, 0x3e, 0x49, 0xc2, 0x18, 0xbd,
  0x25, 0x73, 0x8a, 0x3e, 0xeb, 0xab, 0x7c, 0xbe, 0x62, 0xf7, 0x3a, 0xbe,
  0x74, 0x83, 0xa1, 0xbe, 0x4c, 0xfe, 0xb2, 0xbd, 0x82, 0x69, 0xb3, 0xbe,
  0xba, 0x37, 0xae, 0xbe, 0x45, 0x7d, 0xc0, 0xbe, 0xbf, 0xc1, 0xb2, 0x3e,
  0x29, 0x9e, 0xb3, 0x3e, 0x99, 0x4e, 0xaa, 0x3e, 0xf7, 0xfb, 0x09, 0x3f,
  0xfb, 0x69, 0xe9, 0x3d, 0xd4, 0xc9, 0xdd, 0x3e, 0xa9, 0x3c, 0x38, 0x3e,
  0x4d, 0x61, 0x0c, 0x3d, 0x3b, 0x33, 0x40, 0x3e, 0x3a, 0x1e, 0x58, 0x3e,
  0xa4, 0xa9, 0x12, 0x3f, 0x5a, 0xa8, 0xa5, 0xbd, 0x53, 0xee, 0xab, 0x3e,
  0x86, 0xef, 0xd8, 0xbe, 0xc9, 0x14, 0x28, 0xbd, 0x13, 0x3f, 0x4f, 0x3e,
  0x2e, 0x53, 0x66, 0xbe, 0x65, 0xb3, 0x5c, 0x3e, 0x88, 0xa9, 0x88, 0xbf,
  0xbe, 0x0d, 0x13, 0xbe, 0x19, 0xa7, 0x2a, 0x3d, 0x04, 0x6d, 0x80, 0xbe,
  0x8d, 0xbb, 0x75, 0xbd, 0x36, 0x9a, 0xc3, 0x3e, 0x0a, 0x47, 0xfb, 0xbe,
  0xa5, 0x51, 0xba, 0x3e, 0xb7, 0xea, 0x43, 0x3e, 0xc5, 0x7e, 0xec, 0x3e,
  0x4a, 0x2c, 0xb4, 0x3e, 0xdc, 0xd9, 0x23, 0xbe, 0x0a, 0x54, 0x3e, 0x3e,
  0xa0, 0x3d, 0xc6, 0x3e, 0xdd, 0x37, 0xa0, 0xbe, 0x2d, 0x3e, 0x5b, 0xbe,
  0x16, 0x7d, 0xa8, 0x3e, 0x03, 0x96, 0x7d, 0x3e, 0x0a, 0x53, 0x70, 0xbe,
  0x66, 0x51, 0x9b, 0x3e, 0xb7, 0x19, 0x2f, 0x3e, 0x2b, 0xf3, 0x17, 0xbe,
  0x03, 0x6f, 0x1e, 0x3e, 0x5d, 0x6d, 0x27, 0x3e, 0xe9, 0x8b, 0xef, 0xbe,
  0xd3, 0x96, 0x63, 0x3e, 0x01, 0xa4, 0xdb, 0x3e, 0x41, 0xd8, 0x96, 0xbe,
  0x98, 0x05, 0x5d, 0x3e, 0x00, 0x28, 0xaf, 0x3e, 0x14, 0xae, 0x95, 0x3d,
  0xe0, 0xd9, 0x6f, 0x3e, 0x00, 0x69, 0x3e, 0x3c, 0x5c, 0xdf, 0x96, 0xbd,
  0x8f, 0x2e, 0x41, 0x3d, 0xd8, 0x83, 0x31, 0x3e, 0xaa, 0xea, 0x25, 0xbe,
  0x3c, 0x0a, 0x44, 0xbe, 0xe4, 0x07, 0x14, 0x3e, 0x78, 0xdc, 0xfd, 0xbe,
  0xbb, 0x6c, 0x67, 0xbe, 0x4c, 0x00, 0x9a, 0x3e, 0xb2, 0xe7, 0x96, 0xbe,
  0xdf, 0x1b, 0xf5, 0xbe, 0x66, 0xe4, 0x91, 0xbe, 0xb2, 0x35, 0x18, 0x3e,
  0x97, 0x13, 0x95, 0x3e, 0x0c, 0xee, 0x53, 0xbf, 0xac, 0x3d, 0xaa, 0x3e,
  0x29, 0x99, 0x75, 0xbe, 0x14, 0x78, 0xb4, 0x3e, 0x61, 0x82, 0x02, 0xbd,
  0xbc, 0x06, 0x06, 0x3e, 0x7c, 0xc5, 0x85, 0x3e, 0x29, 0x5c, 0xb4, 0x3e,
  0x1a, 0x55, 0xee, 0x3d, 0xeb, 0x4f, 0x87, 0x3e, 0x25, 0x4f, 0xab, 0x3d,
  0xe9, 0xd7, 0x28, 0xbf, 0x56, 0xf5, 0x85, 0x3e, 0x37, 0x6b, 0xd5, 0xbb,
  0x07, 0x69, 0xc5, 0xbe, 0x4b, 0xed, 0xa0, 0x3e, 0xc9, 0xe5, 0xf4, 0xbe,
  0xe6, 0xae, 0xb2, 0x3e, 0x79, 0xb4, 0xb0, 0x3d, 0xa6, 0xe6, 0x29, 0x3f,
  0x78, 0x4e, 0xaa, 0x3e, 0x92, 0xa8, 0x44, 0xbd, 0x01, 0x5a, 0x13, 0xbe,
  0xfc, 0x7e, 0xe1, 0xbd, 0xc1, 0xc5, 0x78, 0xbd, 0xec, 0xa7, 0xfc, 0x3e,
  0x23, 0xb5, 0xad, 0x3d, 0x32, 0xc7, 0x12, 0xbf, 0x48, 0xef, 0x9f, 0x3e,
  0xec, 0x63, 0x3a, 0xbd, 0x45, 0xd9, 0x0a, 0xbf, 0x2a, 0xb0, 0x82, 0x3e,
  0x53, 0xfc, 0x8d, 0xbe, 0xf0, 0x28, 0xd2, 0x3e, 0x61, 0xed, 0xc2, 0x3e,
  0x60, 0x33, 0xc3, 0xbe, 0x88, 0xb5, 0x9b, 0x3e, 0xfa, 0xfc, 0x1d, 0xbe,
  0x9b, 0x12, 0x50, 0xbe, 0x3a, 0x3b, 0xd4, 0x3e, 0x23, 0x6c, 0x0b, 0xbc,
  0xdb, 0xc6, 0xcd, 0xbe, 0x57, 0x4c, 0x5d, 0x3e, 0x66, 0x18, 0x1c, 0x3e,
  0x64, 0x68, 0x02, 0xbf, 0xa8, 0x5d, 0x6f, 0xbe, 0x1e, 0x0a, 0x51, 0x3e,
  0x08, 0x86, 0xf2, 0x3e, 0x02, 0xd0, 0x05, 0xbd, 0xdc, 0x41, 0x3c, 0x3d,
  0x94, 0xb3, 0x07, 0xbe, 0x77, 0xca, 0xaa, 0x3e, 0xf9, 0x11, 0xe1, 0x3d,
  0x33, 0x64, 0xcd, 0x3e, 0xba, 0xa3, 0xdc, 0xbe, 0x04, 0x82, 0x17, 0x3e,
  0xc3, 0x1b, 0x27, 0x3e, 0xc5, 0xe3, 0x51, 0x3e, 0xba, 0x8c, 0xb9, 0xbb,
  0x52, 0x53, 0x02, 0xbe, 0x36, 0x11, 0xf3, 0xbd, 0x6d, 0xff, 0x12, 0xbd,
  0xef, 0x9f, 0x81, 0x3e, 0x75, 0x03, 0x2e, 0xbe, 0x33, 0x9e, 0x9f, 0xbe,
  0xcb, 0xdd, 0xc8, 0x3d, 0x3c, 0x89, 0x00, 0xbc, 0xd3, 0x82, 0x27, 0x3e,
  0xe3, 0x72, 0xa1, 0x3e, 0x38, 0xb7, 0x73, 0x3e, 0x85, 0x3a, 0x23, 0xbe,
  0xcd, 0xc0, 0x80, 0x3e, 0x0e, 0x56, 0x16, 0x3e, 0xe2, 0x18, 0x1a, 0xbd,
  0x27, 0x00, 0x18, 0x3f, 0x98, 0x51, 0xc9, 0xbd, 0x68, 0xca, 0xa2, 0x3e,
  0x29, 0x88, 0x2f, 0xbe, 0x31, 0xba, 0xbb, 0xbe, 0x88, 0xea, 0xbc, 0xbc,
  0x8a, 0x19, 0x9d, 0x3d, 0x2f, 0x11, 0xc8, 0x3e, 0xf3, 0x88, 0x25, 0x3b,
  0xb2, 0x7c, 0xea, 0x3e, 0x2e, 0x2e, 0x82, 0xbc, 0x8f, 0x48, 0x23, 0x3c,
  0xe1, 0xa0, 0x76, 0xbe, 0x0d, 0xab, 0xb4, 0x3e, 0xd7, 0xb5, 0x66, 0x3d,
  0x51, 0xc1, 0x8c, 0x3e, 0x79, 0x6c, 0xdb, 0x3d, 0xc3, 0x1f, 0x24, 0xbe,
  0x26, 0xf3, 0xbd, 0x3e, 0xfd, 0x11, 0x84, 0xbe, 0x22, 0x4a, 0x11, 0xbf,
  0x07, 0x24, 0x62, 0x3e, 0x46, 0xc4, 0xbf, 0x3e, 0x13, 0xef, 0x2a, 0xbe,
  0xeb, 0x85, 0x7a, 0x3e, 0xa9, 0x24, 0x2f, 0xbe, 0x7c, 0x16, 0xc8, 0xbe,
  0xb8, 0x38, 0xec, 0xbe, 0x32, 0xcf, 0x97, 0x3e, 0xe3, 0x19, 0x89, 0xbd,
  0xa5, 0x9b, 0xe9, 0x3d, 0xe2, 0x29, 0xf8, 0xbe, 0xaa, 0x7a, 0x0b, 0x3e,
  0x30, 0xea, 0xca, 0x3d, 0x3c, 0x3a, 0xb4, 0xbd, 0x76, 0xe8, 0x67, 0xbe,
  0x9d, 0xe1, 0x3d, 0xbe, 0xed, 0x5d, 0xcb, 0xbd, 0xd7, 0xb8, 0x61, 0xbd,
  0x12, 0x28, 0xc7, 0x3d, 0xd2, 0x6a, 0x88, 0x3c, 0x56, 0xd6, 0x3c, 0x3c,
  0xe2, 0xd4, 0xa6, 0x3d, 0x62, 0xb0, 0x5d, 0xbd, 0x74, 0x20, 0x85, 0xbe,
  0x20, 0xe3, 0x92, 0xbe, 0x3c, 0x74, 0x78, 0xbe, 0x37, 0x58, 0x82, 0x3c,
  0x6c, 0x3a, 0xa6, 0xbe, 0xe7, 0x50, 0x59, 0xbe, 0xb7, 0xac, 0x81, 0xbe,
  0x42, 0x61, 0x2e, 0x3e, 0x6f, 0x28, 0xba, 0xbe, 0x85, 0xe6, 0xf1, 0x3c,
  0x75, 0xd2, 0x47, 0xbe, 0xa6, 0xff, 0xad, 0x3e, 0xae, 0x02, 0x25, 0x3e,
  0x7b, 0xd8, 0x73, 0x3c, 0xc4, 0x5f, 0xba, 0x3e, 0x3e, 0x9c, 0xb7, 0x3d,
  0x1f, 0x62, 0x8d, 0xbe, 0xd5, 0x48, 0xce, 0xbe, 0x36, 0xdb, 0x16, 0x3e,
  0x26, 0x48, 0x97, 0xbe, 0xaf, 0x10, 0xa0, 0x3e, 0x10, 0xed, 0xa4, 0xbd,
  0x03, 0x38, 0xca, 0x3e, 0x7d, 0xd5, 0x59, 0x3a, 0xab, 0x32, 0xc4, 0xbe,
  0xbc, 0x0b, 0xd6, 0x3e, 0x3d, 0xbb, 0x00, 0xbe, 0x1d, 0x04, 0x8d, 0x3d,
  0x25, 0x10, 0xb7, 0xbe, 0xb5, 0xf8, 0x5f, 0xbe, 0xc5, 0x2f, 0x99, 0x3d,
  0x41, 0x44, 0xbe, 0x3e, 0x75, 0x47, 0xab, 0x3e, 0x26, 0xf9, 0xe1, 0xbd,
  0xf8, 0xa6, 0x55, 0xbd, 0xb3, 0x71, 0x1b, 0x3d, 0xc5, 0x06, 0x9a, 0x3e,
  0xed, 0xcb, 0x03, 0xbf, 0x17, 0xc2, 0x8e, 0x3e, 0xe2, 0xb2, 0x82, 0xbd,
  0xa8, 0x80, 0xcb, 0xbe, 0x69, 0x0c, 0xdf, 0x3d, 0x74, 0x1a, 0xdd, 0x3d,
  0xa4, 0x14, 0xe1, 0x3d, 0x32, 0xa8, 0xb0, 0x3d, 0x54, 0x43, 0x06, 0xbb,
  0xf5, 0xa1, 0x12, 0x3e, 0x30, 0xc2, 0x37, 0xbe, 0x7c, 0xc6, 0x0c, 0x3e,
  0x98, 0x05, 0xc5, 0x3e, 0xce, 0x0c, 0x86, 0xbe, 0x09, 0xdf, 0xaf, 0x3e,
  0x7d, 0x98, 0x95, 0xbe, 0x64, 0x33, 0x44, 0x3e, 0xa7, 0x04, 0xd2, 0xbe,
  0x7d, 0xe4, 0x12, 0xbe, 0x17, 0x3c, 0x45, 0x3e, 0x07, 0x8b, 0x87, 0xbe,
  0x54, 0xf3, 0x5a, 0x3e, 0x70, 0x34, 0xa3, 0xbd, 0x94, 0xaf, 0x96, 0xbe,
  0xc5, 0x5c, 0xbf, 0xbc, 0x18, 0x0c, 0x6d, 0x3e, 0x2e, 0x04, 0xe8, 0x3d,
  0xb6, 0xb9, 0xcb, 0x3e, 0x17, 0xd5, 0xf2, 0x3b, 0xbd, 0x3b, 0xbb, 0x3e,
  0xaf, 0x2d, 0xae, 0xbe, 0x2a, 0x7d, 0xdc, 0x3e, 0xfd, 0xd4, 0x95, 0xbd,
  0xbb, 0x44, 0x08, 0x3e, 0x97, 0xe0, 0x28, 0xbd, 0xb0, 0x58, 0xdc, 0x3d,
  0xee, 0x61, 0x6c, 0xbd, 0x37, 0x33, 0x33, 0x3d, 0xb7, 0x51, 0x18, 0xbe,
  0x96, 0xda, 0x83, 0x3d, 0x5d, 0x73, 0x3c, 0xbe, 0xa8, 0x3b, 0x0c, 0x3e,
  0xf8, 0xca, 0xa7, 0xbe, 0x85, 0xca, 0x03, 0x3f, 0x8a, 0xac, 0x59, 0xbd,
  0xaa, 0x89, 0x11, 0x3e, 0x99, 0xac, 0x7e, 0xbd, 0x34, 0x18, 0xce, 0xbd,
  0x9e, 0x0a, 0xdd, 0xbd, 0x3c, 0x02, 0x01, 0x3f, 0x7d, 0x86, 0x54, 0xbe,
  0xce, 0x94, 0xa9, 0xbd, 0xf2, 0xc2, 0xe3, 0xbd, 0x7c, 0x2c, 0x1c, 0xbd,
  0xe2, 0xff, 0x49, 0x3d, 0x79, 0xac, 0xf1, 0xbd, 0x15, 0xfe, 0x0f, 0x3e,
  0xac, 0xc3, 0x84, 0xbd, 0x9c, 0x19, 0xf6, 0x3d, 0xe4, 0xa0, 0x89, 0x3e,
  0xb4, 0x38, 0xf8, 0xbc, 0x28, 0x74, 0x6e, 0x3e, 0x31, 0x55, 0xd1, 0xbe,
  0x90, 0x76, 0xc8, 0x3e, 0x1b, 0x87, 0x5e, 0x3e, 0x76, 0x46, 0x57, 0xbd,
  0x01, 0x94, 0xa4, 0x3d, 0xbf, 0xc5, 0x00, 0x3e, 0xa1, 0x8a, 0x37, 0xbd,
  0xe5, 0x3d, 0xf1, 0xbe, 0x4b, 0x51, 0x01, 0x3e, 0x1a, 0xd7, 0xfe, 0xba,
  0x21, 0x5c, 0xae, 0x3e, 0x8d, 0x94, 0xdd, 0x3e, 0x2c, 0x80, 0x0e, 0x3f,
  0xa5, 0x2e, 0x05, 0x3e, 0xed, 0xe8, 0x14, 0xbe, 0x6f, 0x4f, 0xa7, 0x3e,
  0xc7, 0x99, 0x92, 0xbd, 0xda, 0x7e, 0xf2, 0x3e, 0xa9, 0x04, 0x0b, 0xbf,
  0x5f, 0xc4, 0xf5, 0x3e, 0x6a, 0x11, 0xc2, 0x3d, 0xb4, 0xb9, 0x12, 0xbf,
  0x4a, 0x4b, 0x5a, 0x3e, 0xc7, 0x5a, 0x7b, 0x3e, 0x6f, 0xbb, 0xda, 0xbd,
  0xbd, 0x9f, 0x0b, 0x3f, 0xf2, 0x15, 0x9f, 0xbe, 0x67, 0xed, 0xc2, 0x3d,
  0x47, 0xb6, 0x4e, 0xbe, 0x11, 0x98, 0x3c, 0x3e, 0x88, 0xf4, 0x0f, 0x3d,
  0x7b, 0xd2, 0x1c, 0xbd, 0xde, 0x3c, 0xe4, 0x3e, 0xe4, 0x90, 0xe9, 0x3d,
  0x88, 0xd5, 0x9f, 0xbe, 0x15, 0x71, 0xd3, 0xbe, 0xb6, 0xe8, 0x70, 0x3e,
  0xa6, 0x6b, 0xc3, 0x3e, 0x49, 0x31, 0x4e, 0x3e, 0x86, 0x49, 0x75, 0x3e,
  0xfe, 0x8a, 0x5b, 0x3d, 0xdb, 0x62, 0x51, 0x3d, 0x12, 0x0d, 0x38, 0xbe,
  0xeb, 0x8e, 0x45, 0x3d, 0x8a, 0x25, 0xa5, 0xba, 0x09, 0xa7, 0x8a, 0xbe,
  0xb1, 0x6b, 0xcc, 0x3e, 0x1e, 0x82, 0x9f, 0x3d, 0x30, 0x88, 0x1f, 0xbd,
  0x4b, 0x6d, 0xd5, 0x3d, 0x31, 0xc7, 0x72, 0x3e, 0x60, 0xc7, 0xc0, 0x3e,
  0xc2, 0x58, 0xc5, 0x3d, 0x5d, 0x28, 0x98, 0xbe, 0x2b, 0xeb, 0xbf, 0xbe,
  0x64, 0xbd, 0x79, 0xbe, 0x49, 0x68, 0xbe, 0xbe, 0x14, 0xf7, 0xa3, 0xbe,
  0x25, 0x7f, 0xbb, 0xbe, 0xd5, 0x31, 0x4d, 0xbe, 0x23, 0x6a, 0xe0, 0xbd,
  0x81, 0x57, 0xbc, 0xbd, 0xe5, 0xc0, 0x88, 0x3e, 0x80, 0x74, 0x32, 0x3e,
  0xe4, 0xaa, 0x25, 0x3e, 0x26, 0x70, 0x8d, 0xbe, 0xce, 0xe2, 0x25, 0xbd,
  0x45, 0x04, 0x7c, 0xbe, 0x33, 0xd9, 0xb1, 0x3e, 0xa1, 0xd3, 0x46, 0xbd,
  0xcc, 0x86, 0xe8, 0x3e, 0x27, 0x6d, 0x95, 0x3e, 0x0d, 0x90, 0x9f, 0x3e,
  0xb9, 0x99, 0x76, 0x3e, 0x06, 0x35, 0x04, 0x3e, 0xec, 0x2f, 0x09, 0xbe,
  0xcf, 0x7f, 0xd8, 0x3d, 0x32, 0xca, 0xa9, 0xbe, 0x2b, 0xab, 0xcb, 0x3e,
  0x6a, 0x40, 0xc3, 0xbd, 0xdb, 0x88, 0x1d, 0x3f, 0xb1, 0xd7, 0x81, 0x3d,
  0x4d, 0x85, 0x47, 0x3e, 0x6b, 0xe8, 0x07, 0xbe, 0xff, 0xb3, 0x8a, 0xbe,
  0xbc, 0xe9, 0x93, 0x3e, 0x23, 0x04, 0x9f, 0xbe, 0x54, 0x2b, 0x75, 0xbd,
  0xec, 0xb7, 0x3b, 0xbe, 0x46, 0x05, 0xef, 0xbb, 0xca, 0x7a, 0xb7, 0x3c,
  0xbc, 0xd2, 0x92, 0xbe, 0x7a, 0xeb, 0x59, 0x3e, 0xcb, 0x84, 0xb3, 0xbe,
  0xfa, 0x4a, 0x46, 0xbe, 0x58, 0xf0, 0x9a, 0xbe, 0xac, 0xb9, 0x8c, 0xbe,
  0xfa, 0x30, 0x7b, 0xbd, 0x0b, 0x00, 0x3a, 0xbe, 0x01, 0x87, 0xb4, 0x3e,
  0xd8, 0x1d, 0x3b, 0x3e, 0x94, 0xac, 0x25, 0x3e, 0xc8, 0xcb, 0xb7, 0xbd,
  0xd0, 0x55, 0xa7, 0x3e, 0xbe, 0xfd, 0x4b, 0xbd, 0xbb, 0x8c, 0xb3, 0xbd,
  0x54, 0x40, 0x17, 0x3e, 0xc9, 0x98, 0xa7, 0xbd, 0x40, 0x56, 0xae, 0x3e,
  0x1c, 0x41, 0xcc, 0x3e, 0xf8, 0x34, 0xad, 0xbe, 0x3e, 0x10, 0xa0, 0x3d,
  0xd6, 0x3f, 0x1d, 0xbf, 0x4d, 0x6c, 0x00, 0x3e, 0xce, 0xf2, 0x80, 0x3e,
  0x4d, 0x41, 0xb0, 0x3e, 0xbe, 0x1b, 0x39, 0xbe, 0x5f, 0x4a, 0x2c, 0x3e,
  0xd5, 0x5d, 0xf7, 0x3e, 0xe1, 0xcc, 0x98, 0xbe, 0x20, 0x99, 0x08, 0xbe,
  0x3c, 0x37, 0xb9, 0x3e, 0xdb, 0x67, 0xdc, 0x3d, 0xdc, 0x2c, 0xca, 0xbe,
  0xda, 0x0e, 0xa9, 0x3d, 0x2f, 0xdd, 0xf6, 0xbd, 0x67, 0x98, 0x95, 0x3e,
  0x34, 0x24, 0xcf, 0xbe, 0xc9, 0xa1, 0x0c, 0x3f, 0xef, 0xa4, 0xe2, 0xbd,
  0x94, 0xbb, 0xf5, 0xbe, 0xd4, 0x6a, 0x7a, 0x3e, 0x83, 0xc8, 0x98, 0xbe,
  0xae, 0xfa, 0x59, 0x3e, 0x5b, 0x44, 0x52, 0xbe, 0xf1, 0x11, 0x74, 0x3d,
  0xf0, 0x25, 0x6f, 0x3d, 0xaf, 0x3f, 0x60, 0x3d, 0x77, 0xb2, 0xa9, 0x3d,
  0x6b, 0x31, 0x78, 0x3e, 0x7e, 0x14, 0x8d, 0xbe, 0x1a, 0xfa, 0xd0, 0x3e,
  0x7f, 0xa5, 0x15, 0xbe, 0x71, 0xca, 0x1f, 0x3d, 0x45, 0x4c, 0x1d, 0xbf,
  0x84, 0x02, 0x5d, 0xbd, 0xf7, 0x5d, 0x99, 0x3e, 0xfc, 0x60, 0x4c, 0xbe,
  0xad, 0xc2, 0x15, 0xbd, 0xde, 0x24, 0xaa, 0x3e, 0xd6, 0x10, 0xb6, 0x3e,
  0x42, 0x17, 0xae, 0xbe, 0xa3, 0xa9, 0xde, 0x3e, 0x42, 0x64, 0xab, 0xbe,
  0xdc, 0x96, 0xc7, 0x3d, 0x65, 0xe5, 0x44, 0xbe, 0x2c, 0x8a, 0x4a, 0x3e,
  0xdd, 0xd4, 0xaf, 0xbe, 0x8d, 0x21, 0x97, 0x3e, 0xdb, 0x86, 0x70, 0x3e,
  0x63, 0x4d, 0x37, 0x3e, 0xce, 0x4e, 0x94, 0x3c, 0x93, 0x4c, 0x23, 0xbf,
  0xaf, 0x47, 0xcb, 0x3e, 0x7f, 0x5a, 0xc6, 0xbc, 0xaa, 0x59, 0x12, 0xbd,
  0x2e, 0x07, 0xcb, 0xbe, 0xfa, 0x49, 0x87, 0x3e, 0xf7, 0x1d, 0xec, 0x3d,
  0xbd, 0x64, 0x11, 0xbe, 0x4f, 0x85, 0x8d, 0x3d, 0x0a, 0x6e, 0xc4, 0xbe,
  0x43, 0x97, 0xf0, 0x3d, 0x05, 0x3b, 0xd5, 0xbd, 0x63, 0xd7, 0x27, 0xbe,
  0x2c, 0x1e, 0x89, 0x3e, 0x0b, 0xf8, 0x81, 0x3d, 0x62, 0x6d, 0x8e, 0xbe,
  0x13, 0x85, 0x8c, 0x3c, 0x95, 0x70, 0x5a, 0x3e, 0x8c, 0x9a, 0xb5, 0xbd,
  0xe2, 0x41, 0x7e, 0x3e, 0x88, 0xa6, 0xe0, 0x3e, 0xc3, 0x8b, 0xd1, 0xbe,
  0x9e, 0xf3, 0xab, 0x3e, 0xce, 0x06, 0x92, 0x3e, 0xb8, 0x7c, 0x11, 0x3e,
  0x32, 0xbb, 0x95, 0x3c, 0xb5, 0x0f, 0x0b, 0x3e, 0xef, 0xd3, 0xfd, 0xbe,
  0xc6, 0xb7, 0xc4, 0x3e, 0x12, 0x65, 0x67, 0x3e, 0x1e, 0x8d, 0x4d, 0x3f,
  0xe6, 0x9d, 0x68, 0x3e, 0x31, 0xd3, 0xfe, 0xbd, 0x0e, 0x88, 0x07, 0x3f,
  0x94, 0x76, 0x51, 0xbe, 0xd3, 0xa6, 0xff, 0xbe, 0x77, 0x95, 0x1c, 0x3f,
  0xfa, 0x98, 0x18, 0xbf, 0xbc, 0x27, 0xa2, 0x3e, 0x7a, 0x02, 0xdf, 0x3e,
  0x50, 0x59, 0xaa, 0xbd, 0xb5, 0x34, 0x49, 0xbe, 0x72, 0x85, 0x53, 0x3d,
  0x92, 0x65, 0x0e, 0x3c, 0x2a, 0xb0, 0xf2, 0x3e, 0x4a, 0x03, 0x86, 0xbe,
  0xda, 0xca, 0x5c, 0x3f, 0x7f, 0x5d, 0x8d, 0xbe, 0x9e, 0x98, 0xfe, 0x3c,
  0x29, 0xc6, 0x74, 0xbd, 0xd4, 0x5c, 0x19, 0xbe, 0x70, 0x76, 0xc0, 0xbe,
  0x1e, 0xff, 0xff, 0xff, 0x04, 0x00, 0x00, 0x00, 0x10, 0x00, 0x00, 0x00,
  0x80, 0xc5, 0x22, 0x3e, 0x7d, 0x8b, 0x94, 0x3c, 0x50, 0x6d, 0x69, 0x3c,
  0x28, 0xc7, 0xa2, 0xbd, 0x3a, 0xff, 0xff, 0xff, 0x04, 0x00, 0x00, 0x00,
  0x20, 0x00, 0x00, 0x00, 0xb3, 0x99, 0xdf, 0xbd, 0x15, 0xfd, 0x85, 0x3d,
  0xb8, 0xaf, 0x73, 0xbd, 0x76, 0xaa, 0xed, 0x3c, 0xf8, 0xb4, 0x40, 0xbd,
  0x8a, 0x6e, 0xff, 0xbd, 0x57, 0x07, 0x8a, 0xbd, 0x6e, 0x56, 0x9f, 0xbd,
  0x66, 0xff, 0xff, 0xff, 0x04, 0x00, 0x00, 0x00, 0x40, 0x00, 0x00, 0x00,
  0x3d, 0xd4, 0x91, 0x3d, 0x79, 0xee, 0xd1, 0x3d, 0x6b, 0x5d, 0x93, 0xbe,
  0x9b, 0x10, 0x7a, 0xbd, 0xb6, 0x3b, 0xd9, 0xbd, 0x3b, 0x1e, 0x88, 0xbe,
  0x96, 0x64, 0xd9, 0xbd, 0xed, 0x1c, 0x51, 0x3e, 0x61, 0xe1, 0x6e, 0xbc,
  0x14, 0x5e, 0xff, 0xbc, 0xc7, 0x54, 0x0a, 0x3e, 0x5e, 0x45, 0xb3, 0xbd,
  0x66, 0x28, 0x47, 0x3e, 0xa8, 0xc5, 0x21, 0xbe, 0xde, 0x9f, 0xd7, 0xbc,
  0xa5, 0xeb, 0x71, 0xbc, 0xb2, 0xff, 0xff, 0xff, 0x04, 0x00, 0x00, 0x00,
  0x40, 0x00, 0x00, 0x00, 0x23, 0x7b, 0xf0, 0x39, 0x1d, 0x63, 0xd6, 0x3c,
  0x36, 0xb1, 0x7a, 0xbe, 0xcf, 0x06, 0x0e, 0xbd, 0x7f, 0xc6, 0x4c, 0xbe,
  0x03, 0x44, 0x58, 0xbe, 0x69, 0xb2, 0xc9, 0xbd, 0x73, 0x31, 0x32, 0x3e,
  0x95, 0x3a, 0x82, 0xbd, 0x1f, 0xea, 0x9a, 0xbc, 0x70, 0xc4, 0x13, 0x3c,
  0xa1, 0xb8, 0xec, 0xbd, 0x3c, 0x62, 0xd6, 0xbb, 0xfb, 0xe6, 0x1c, 0xbe,
  0xbe, 0xb1, 0xa9, 0xbc, 0xcf, 0x87, 0x11, 0xbd, 0x00, 0x00, 0x06, 0x00,
  0x08, 0x00, 0x04, 0x00, 0x06, 0x00, 0x00, 0x00, 0x04, 0x00, 0x00, 0x00,
  0x80, 0x00, 0x00, 0x00, 0x1f, 0x8f, 0xe6, 0xbc, 0xe5, 0x29, 0xbd, 0xbd,
  0x00, 0x8f, 0x6a, 0xbd, 0x28, 0x25, 0xb1, 0xbd, 0x3b, 0xd1, 0xa4, 0xbd,
  0x23, 0x18, 0x9d, 0x3d, 0x30, 0x3e, 0x04, 0xbe, 0x65, 0xcf, 0x1b, 0xbe,
  0x8c, 0x34, 0x90, 0xbb, 0x17, 0xe9, 0x12, 0xbe, 0xe2, 0x44, 0x9b, 0xbd,
  0x63, 0xfb, 0x8a, 0x3e, 0x69, 0x5e, 0x82, 0x3a, 0xae, 0x90, 0x99, 0xbd,
  0x33, 0x96, 0x8f, 0x3d, 0x0c, 0xa7, 0xa7, 0xbc, 0x40, 0xfe, 0xec, 0xbb,
  0x09, 0x38, 0x8d, 0x3e, 0x5d, 0xf6, 0x49, 0xbc, 0x35, 0x85, 0x93, 0xbd,
  0xd7, 0x86, 0x3f, 0xbd, 0x0d, 0x05, 0x04, 0xba, 0xfb, 0x18, 0x9c, 0xbc,
  0xc8, 0x74, 0x0f, 0xbd, 0x14, 0x90, 0x8d, 0xbc, 0x34, 0xdb, 0x5b, 0x3d,
  0x09, 0xe1, 0x1e, 0xbd, 0x9c, 0xf8, 0x8c, 0xbc, 0x3b, 0x7f, 0x90, 0x3c,
  0x02, 0x9c, 0x2f, 0x3e, 0xe7, 0x6f, 0x1c, 0xbd, 0x4e, 0x90, 0xf4, 0x3d,
  0x00, 0xf3, 0xff, 0xff, 0x04, 0xf3, 0xff, 0xff, 0x0f, 0x00, 0x00, 0x00,
  0x4d, 0x4c, 0x49, 0x52, 0x20, 0x43, 0x6f, 0x6e, 0x76, 0x65, 0x72, 0x74,
  0x65, 0x64, 0x2e, 0x00, 0x01, 0x00, 0x00, 0x00, 0x14, 0x00, 0x00, 0x00,
  0x00, 0x00, 0x0e, 0x00, 0x18, 0x00, 0x14, 0x00, 0x10, 0x00, 0x0c, 0x00,
  0x08, 0x00, 0x04, 0x00, 0x0e, 0x00, 0x00, 0x00, 0x14, 0x00, 0x00, 0x00,
  0x1c, 0x00, 0x00, 0x00, 0xc0, 0x02, 0x00, 0x00, 0xc4, 0x02, 0x00, 0x00,
  0xc8, 0x02, 0x00, 0x00, 0x04, 0x00, 0x00, 0x00, 0x6d, 0x61, 0x69, 0x6e,
  0x00, 0x00, 0x00, 0x00, 0x09, 0x00, 0x00, 0x00, 0x5c, 0x02, 0x00, 0x00,
  0xf8, 0x01, 0x00, 0x00, 0x90, 0x01, 0x00, 0x00, 0x40, 0x01, 0x00, 0x00,
  0xfc, 0x00, 0x00, 0x00, 0xb4, 0x00, 0x00, 0x00, 0x70, 0x00, 0x00, 0x00,
  0x3c, 0x00, 0x00, 0x00, 0x04, 0x00, 0x00, 0x00, 0x36, 0xfe, 0xff, 0xff,
  0x14, 0x00, 0x00, 0x00, 0x00, 0x00, 0x00, 0x08, 0x10, 0x00, 0x00, 0x00,
  0x14, 0x00, 0x00, 0x00, 0x04, 0x00, 0x00, 0x00, 0x98, 0xf3, 0xff, 0xff,
  0x01, 0x00, 0x00, 0x00, 0x16, 0x00, 0x00, 0x00, 0x03, 0x00, 0x00, 0x00,
  0x15, 0x00, 0x00, 0x00, 0x0a, 0x00, 0x00, 0x00, 0x05, 0x00, 0x00, 0x00,
  0x6a, 0xfe, 0xff, 0xff, 0x14, 0x00, 0x00, 0x00, 0x00, 0x00, 0x00, 0x1b,
  0x10, 0x00, 0x00, 0x00, 0x14, 0x00, 0x00, 0x00, 0x03, 0x00, 0x00, 0x00,
  0xcc, 0xf3, 0xff, 0xff, 0x01, 0x00, 0x00, 0x00, 0x15, 0x00, 0x00, 0x00,
  0x02, 0x00, 0x00, 0x00, 0x14, 0x00, 0x00, 0x00, 0x0b, 0x00, 0x00, 0x00,
  0x3a, 0xfe, 0xff, 0xff, 0x10, 0x00, 0x00, 0x00, 0x00, 0x00, 0x00, 0x01,
  0x1c, 0x00, 0x00, 0x00, 0x20, 0x00, 0x00, 0x00, 0x3c, 0xff, 0xff, 0xff,
  0x00, 0x00, 0x00, 0x01, 0x01, 0x00, 0x00, 0x00, 0x01, 0x00, 0x00, 0x00,
  0x00, 0x00, 0x00, 0x01, 0x01, 0x00, 0x00, 0x00, 0x14, 0x00, 0x00, 0x00,
  0x03, 0x00, 0x00, 0x00, 0x13, 0x00, 0x00, 0x00, 0x06, 0x00, 0x00, 0x00,
  0x01, 0x00, 0x00, 0x00, 0xda, 0xfe, 0xff, 0xff, 0x14, 0x00, 0x00, 0x00,
  0x00, 0x00, 0x00, 0x02, 0x20, 0x00, 0x00, 0x00, 0x24, 0x00, 0x00, 0x00,
  0x02, 0x00, 0x00, 0x00, 0x2e, 0xff, 0xff, 0xff, 0x00, 0x00, 0x00, 0x01,
  0x01, 0x00, 0x00, 0x00, 0x01, 0x00, 0x00, 0x00, 0x01, 0x00, 0x00, 0x00,
  0x01, 0x00, 0x00, 0x00, 0x13, 0x00, 0x00, 0x00, 0x03, 0x00, 0x00, 0x00,
  0x12, 0x00, 0x00, 0x00, 0x07, 0x00, 0x00, 0x00, 0x02, 0x00, 0x00, 0x00,
  0x1e, 0xff, 0xff, 0xff, 0x14, 0x00, 0x00, 0x00, 0x00, 0x00, 0x00, 0x05,
  0x24, 0x00, 0x00, 0x00, 0x28, 0x00, 0x00, 0x00, 0x01, 0x00, 0x00, 0x00,
  0x0e, 0xff, 0xff, 0xff, 0x02, 0x00, 0x00, 0x00, 0x02, 0x00, 0x00, 0x00,
  0x02, 0x00, 0x00, 0x00, 0x02, 0x00, 0x00, 0x00, 0x00, 0x00, 0x00, 0x01,
  0x01, 0x00, 0x00, 0x00, 0x12, 0x00, 0x00, 0x00, 0x01, 0x00, 0x00, 0x00,
  0x11, 0x00, 0x00, 0x00, 0xfe, 0xfe, 0xff, 0xff, 0x1c, 0x00, 0x00, 0x00,
  0x00, 0x00, 0x00, 0x01, 0x28, 0x00, 0x00, 0x00, 0x2c, 0x00, 0x00, 0x00,
  0x0c, 0x00, 0x14, 0x00, 0x13, 0x00, 0x0c, 0x00, 0x08, 0x00, 0x07, 0x00,
  0x0c, 0x00, 0x00, 0x00, 0x00, 0x00, 0x00, 0x01, 0x01, 0x00, 0x00, 0x00,
  0x01, 0x00, 0x00, 0x00, 0x00, 0x00, 0x00, 0x01, 0x01, 0x00, 0x00, 0x00,
  0x11, 0x00, 0x00, 0x00, 0x03, 0x00, 0x00, 0x00, 0x10, 0x00, 0x00, 0x00,
  0x08, 0x00, 0x00, 0x00, 0x03, 0x00, 0x00, 0x00, 0xaa, 0xff, 0xff, 0xff,
  0x24, 0x00, 0x00, 0x00, 0x00, 0x00, 0x00, 0x02, 0x30, 0x00, 0x00, 0x00,
  0x34, 0x00, 0x00, 0x00, 0x02, 0x00, 0x00, 0x00, 0x00, 0x00, 0x0e, 0x00,
  0x14, 0x00, 0x00, 0x00, 0x10, 0x00, 0x0c, 0x00, 0x08, 0x00, 0x07, 0x00,
  0x0e, 0x00, 0x00, 0x00, 0x00, 0x00, 0x00, 0x01, 0x01, 0x00, 0x00, 0x00,
  0x01, 0x00, 0x00, 0x00, 0x01, 0x00, 0x00, 0x00, 0x01, 0x00, 0x00, 0x00,
  0x10, 0x00, 0x00, 0x00, 0x03, 0x00, 0x00, 0x00, 0x0f, 0x00, 0x00, 0x00,
  0x09, 0x00, 0x00, 0x00, 0x04, 0x00, 0x00, 0x00, 0x00, 0x00, 0x0e, 0x00,
  0x1a, 0x00, 0x14, 0x00, 0x10, 0x00, 0x0c, 0x00, 0x0b, 0x00, 0x04, 0x00,
  0x0e, 0x00, 0x00, 0x00, 0x24, 0x00, 0x00, 0x00, 0x00, 0x00, 0x00, 0x05,
  0x34, 0x00, 0x00, 0x00, 0x38, 0x00, 0x00, 0x00, 0x01, 0x00, 0x00, 0x00,
  0x00, 0x00, 0x0e, 0x00, 0x18, 0x00, 0x17, 0x00, 0x10, 0x00, 0x0c, 0x00,
  0x08, 0x00, 0x04, 0x00, 0x0e, 0x00, 0x00, 0x00, 0x02, 0x00, 0x00, 0x00,
  0x02, 0x00, 0x00, 0x00, 0x02, 0x00, 0x00, 0x00, 0x02, 0x00, 0x00, 0x00,
  0x00, 0x00, 0x00, 0x01, 0x01, 0x00, 0x00, 0x00, 0x0f, 0x00, 0x00, 0x00,
  0x01, 0x00, 0x00, 0x00, 0x0e, 0x00, 0x00, 0x00, 0x00, 0x00, 0x0e, 0x00,
  0x14, 0x00, 0x00, 0x00, 0x10, 0x00, 0x0c, 0x00, 0x0b, 0x00, 0x04, 0x00,
  0x0e, 0x00, 0x00, 0x00, 0x1c, 0x00, 0x00, 0x00, 0x00, 0x00, 0x00, 0x01,
  0x24, 0x00, 0x00, 0x00, 0x28, 0x00, 0x00, 0x00, 0x0c, 0x00, 0x10, 0x00,
  0x00, 0x00, 0x0c, 0x00, 0x08, 0x00, 0x07, 0x00, 0x0c, 0x00, 0x00, 0x00,
  0x00, 0x00, 0x00, 0x01, 0x01, 0x00, 0x00, 0x00, 0x01, 0x00, 0x00, 0x00,
  0x01, 0x00, 0x00, 0x00, 0x0e, 0x00, 0x00, 0x00, 0x03, 0x00, 0x00, 0x00,
  0x00, 0x00, 0x00, 0x00, 0x0c, 0x00, 0x00, 0x00, 0x0d, 0x00, 0x00, 0x00,
  0x01, 0x00, 0x00, 0x00, 0x16, 0x00, 0x00, 0x00, 0x01, 0x00, 0x00, 0x00,
  0x00, 0x00, 0x00, 0x00, 0x17, 0x00, 0x00, 0x00, 0xbc, 0x09, 0x00, 0x00,
  0x68, 0x09, 0x00, 0x00, 0x14, 0x09, 0x00, 0x00, 0xd8, 0x08, 0x00, 0x00,
  0x9c, 0x08, 0x00, 0x00, 0x60, 0x08, 0x00, 0x00, 0x18, 0x08, 0x00, 0x00,
  0xd0, 0x07, 0x00, 0x00, 0x88, 0x07, 0x00, 0x00, 0x40, 0x07, 0x00, 0x00,
  0x00, 0x07, 0x00, 0x00, 0x90, 0x06, 0x00, 0x00, 0x1c, 0x06, 0x00, 0x00,
  0x94, 0x05, 0x00, 0x00, 0xe4, 0x04, 0x00, 0x00, 0x6c, 0x04, 0x00, 0x00,
  0xa4, 0x03, 0x00, 0x00, 0xd0, 0x02, 0x00, 0x00, 0x54, 0x02, 0x00, 0x00,
  0x84, 0x01, 0x00, 0x00, 0xd0, 0x00, 0x00, 0x00, 0x60, 0x00, 0x00, 0x00,
  0x04, 0x00, 0x00, 0x00, 0xb6, 0xf6, 0xff, 0xff, 0x00, 0x00, 0x00, 0x01,
  0x14, 0x00, 0x00, 0x00, 0x1c, 0x00, 0x00, 0x00, 0x1c, 0x00, 0x00, 0x00,
  0x17, 0x00, 0x00, 0x00, 0x34, 0x00, 0x00, 0x00, 0x02, 0x00, 0x00, 0x00,
  0xff, 0xff, 0xff, 0xff, 0x04, 0x00, 0x00, 0x00, 0x98, 0xf6, 0xff, 0xff,
  0x1b, 0x00, 0x00, 0x00, 0x53, 0x74, 0x61, 0x74, 0x65, 0x66, 0x75, 0x6c,
  0x50, 0x61, 0x72, 0x74, 0x69, 0x74, 0x69, 0x6f, 0x6e, 0x65, 0x64, 0x43,
  0x61, 0x6c, 0x6c, 0x5f, 0x31, 0x3a, 0x30, 0x00, 0x02, 0x00, 0x00, 0x00,
  0x01, 0x00, 0x00, 0x00, 0x04, 0x00, 0x00, 0x00, 0x0e, 0xf7, 0xff, 0xff,
  0x00, 0x00, 0x00, 0x01, 0x14, 0x00, 0x00, 0x00, 0x1c, 0x00, 0x00, 0x00,
  0x1c, 0x00, 0x00, 0x00, 0x16, 0x00, 0x00, 0x00, 0x48, 0x00, 0x00, 0x00,
  0x02, 0x00, 0x00, 0x00, 0xff, 0xff, 0xff, 0xff, 0x20, 0x00, 0x00, 0x00,
  0xf0, 0xf6, 0xff, 0xff, 0x2c, 0x00, 0x00, 0x00, 0x73, 0x65, 0x71, 0x75,
  0x65, 0x6e, 0x74, 0x69, 0x61, 0x6c, 0x5f, 0x31, 0x2f, 0x67, 0x6c, 0x6f,
  0x62, 0x61, 0x6c, 0x5f, 0x61, 0x76, 0x65, 0x72, 0x61, 0x67, 0x65, 0x5f,
  0x70, 0x6f, 0x6f, 0x6c, 0x69, 0x6e, 0x67, 0x32, 0x64, 0x5f, 0x31, 0x2f,
  0x4d, 0x65, 0x61, 0x6e, 0x00, 0x00, 0x00, 0x00, 0x02, 0x00, 0x00, 0x00,
  0x01, 0x00, 0x00, 0x00, 0x20, 0x00, 0x00, 0x00, 0x7a, 0xf7, 0xff, 0xff,
  0x00, 0x00, 0x00, 0x01, 0x14, 0x00, 0x00, 0x00, 0x24, 0x00, 0x00, 0x00,
  0x24, 0x00, 0x00, 0x00, 0x15, 0x00, 0x00, 0x00, 0x84, 0x00, 0x00, 0x00,
  0x04, 0x00, 0x00, 0x00, 0xff, 0xff, 0xff, 0xff, 0x0c, 0x00, 0x00, 0x00,
  0x0a, 0x00, 0x00, 0x00, 0x20, 0x00, 0x00, 0x00, 0x64, 0xf7, 0xff, 0xff,
  0x61, 0x00, 0x00, 0x00, 0x73, 0x65, 0x71, 0x75, 0x65, 0x6e, 0x74, 0x69,
  0x61, 0x6c, 0x5f, 0x31, 0x2f, 0x63, 0x6f, 0x6e, 0x76, 0x32, 0x64, 0x5f,
  0x32, 0x5f, 0x31, 0x2f, 0x52, 0x65, 0x6c, 0x75, 0x3b, 0x73, 0x65, 0x71,
  0x75, 0x65, 0x6e, 0x74, 0x69, 0x61, 0x6c, 0x5f, 0x31, 0x2f, 0x63, 0x6f,
  0x6e, 0x76, 0x32, 0x64, 0x5f, 0x32, 0x5f, 0x31, 0x2f, 0x42, 0x69, 0x61,
  0x73, 0x41, 0x64, 0x64, 0x3b, 0x73, 0x65, 0x71, 0x75, 0x65, 0x6e, 0x74,
  0x69, 0x61, 0x6c, 0x5f, 0x31, 0x2f, 0x63, 0x6f, 0x6e, 0x76, 0x32, 0x64,
  0x5f, 0x32, 0x5f, 0x31, 0x2f, 0x63, 0x6f, 0x6e, 0x76, 0x6f, 0x6c, 0x75,
  0x74, 0x69, 0x6f, 0x6e, 0x3b, 0x00, 0x00, 0x00, 0x04, 0x00, 0x00, 0x00,
  0x01, 0x00, 0x00, 0x00, 0x0c, 0x00, 0x00, 0x00, 0x0a, 0x00, 0x00, 0x00,
  0x20, 0x00, 0x00, 0x00, 0x2a, 0xf8, 0xff, 0xff, 0x00, 0x00, 0x00, 0x01,
  0x14, 0x00, 0x00, 0x00, 0x24, 0x00, 0x00, 0x00, 0x24, 0x00, 0x00, 0x00,
  0x14, 0x00, 0x00, 0x00, 0xa0, 0x00, 0x00, 0x00, 0x04, 0x00, 0x00, 0x00,
  0xff, 0xff, 0xff, 0xff, 0x0c, 0x00, 0x00, 0x00, 0x0a, 0x00, 0x00, 0x00,
  0x10, 0x00, 0x00, 0x00, 0x14, 0xf8, 0xff, 0xff, 0x7d, 0x00, 0x00, 0x00,
  0x73, 0x65, 0x71, 0x75, 0x65, 0x6e, 0x74, 0x69, 0x61, 0x6c, 0x5f, 0x31,
  0x2f, 0x64, 0x65, 0x70, 0x74, 0x68, 0x77, 0x69, 0x73, 0x65, 0x5f, 0x63,
  0x6f, 0x6e, 0x76, 0x32, 0x64, 0x5f, 0x31, 0x5f, 0x32, 0x2f, 0x52, 0x65,
  0x6c, 0x75, 0x3b, 0x73, 0x65, 0x71, 0x75, 0x65, 0x6e, 0x74, 0x69, 0x61,
  0x6c, 0x5f, 0x31, 0x2f, 0x64, 0x65, 0x70, 0x74, 0x68, 0x77, 0x69, 0x73,
  0x65, 0x5f, 0x63, 0x6f, 0x6e, 0x76, 0x32, 0x64, 0x5f, 0x31, 0x5f, 0x32,
  0x2f, 0x42, 0x69, 0x61, 0x73, 0x41, 0x64, 0x64, 0x3b, 0x73, 0x65, 0x71,
  0x75, 0x65, 0x6e, 0x74, 0x69, 0x61, 0x6c, 0x5f, 0x31, 0x2f, 0x64, 0x65,
  0x70, 0x74, 0x68, 0x77, 0x69, 0x73, 0x65, 0x5f, 0x63, 0x6f, 0x6e, 0x76,
  0x32, 0x64, 0x5f, 0x31, 0x5f, 0x32, 0x2f, 0x64, 0x65, 0x70, 0x74, 0x68,
  0x77, 0x69, 0x73, 0x65, 0x3b, 0x00, 0x00, 0x00, 0x04, 0x00, 0x00, 0x00,
  0x01, 0x00, 0x00, 0x00, 0x0c, 0x00, 0x00, 0x00, 0x0a, 0x00, 0x00, 0x00,
  0x10, 0x00, 0x00, 0x00, 0xf6, 0xf8, 0xff, 0xff, 0x00, 0x00, 0x00, 0x01,
  0x14, 0x00, 0x00, 0x00, 0x24, 0x00, 0x00, 0x00, 0x24, 0x00, 0x00, 0x00,
  0x13, 0x00, 0x00, 0x00, 0x4c, 0x00, 0x00, 0x00, 0x04, 0x00, 0x00, 0x00,
  0xff, 0xff, 0xff, 0xff, 0x0c, 0x00, 0x00, 0x00, 0x0a, 0x00, 0x00, 0x00,
  0x10, 0x00, 0x00, 0x00, 0xe0, 0xf8, 0xff, 0xff, 0x28, 0x00, 0x00, 0x00,
  0x73, 0x65, 0x71, 0x75, 0x65, 0x6e, 0x74, 0x69, 0x61, 0x6c, 0x5f, 0x31,
  0x2f, 0x6d, 0x61, 0x78, 0x5f, 0x70, 0x6f, 0x6f, 0x6c, 0x69, 0x6e, 0x67,
  0x32, 0x64, 0x5f, 0x31, 0x5f, 0x32, 0x2f, 0x4d, 0x61, 0x78, 0x50, 0x6f,
  0x6f, 0x6c, 0x32, 0x64, 0x00, 0x00, 0x00, 0x00, 0x04, 0x00, 0x00, 0x00,
  0x01, 0x00, 0x00, 0x00, 0x0c, 0x00, 0x00, 0x00, 0x0a, 0x00, 0x00, 0x00,
  0x10, 0x00, 0x00, 0x00, 0x6e, 0xf9, 0xff, 0xff, 0x00, 0x00, 0x00, 0x01,
  0x14, 0x00, 0x00, 0x00, 0x24, 0x00, 0x00, 0x00, 0x24, 0x00, 0x00, 0x00,
  0x12, 0x00, 0x00, 0x00, 0xa4, 0x00, 0x00, 0x00, 0x04, 0x00, 0x00, 0x00,
  0xff, 0xff, 0xff, 0xff, 0x18, 0x00, 0x00, 0x00, 0x14, 0x00, 0x00, 0x00,
  0x10, 0x00, 0x00, 0x00, 0x58, 0xf9, 0xff, 0xff, 0x80, 0x00, 0x00, 0x00,
  0x73, 0x65, 0x71, 0x75, 0x65, 0x6e, 0x74, 0x69, 0x61, 0x6c, 0x5f, 0x31,
  0x2f, 0x63, 0x6f, 0x6e, 0x76, 0x32, 0x64, 0x5f, 0x31, 0x5f, 0x32, 0x2f,
  0x52, 0x65, 0x6c, 0x75, 0x3b, 0x73, 0x65, 0x71, 0x75, 0x65, 0x6e, 0x74,
  0x69, 0x61, 0x6c, 0x5f, 0x31, 0x2f, 0x63, 0x6f, 0x6e, 0x76, 0x32, 0x64,
  0x5f, 0x31, 0x5f, 0x32, 0x2f, 0x42, 0x69, 0x61, 0x73, 0x41, 0x64, 0x64,
  0x3b, 0x73, 0x65, 0x71, 0x75, 0x65, 0x6e, 0x74, 0x69, 0x61, 0x6c, 0x5f,
  0x31, 0x2f, 0x63, 0x6f, 0x6e, 0x76, 0x32, 0x64, 0x5f, 0x31, 0x5f, 0x32,
  0x2f, 0x63, 0x6f, 0x6e, 0x76, 0x6f, 0x6c, 0x75, 0x74, 0x69, 0x6f, 0x6e,
  0x3b, 0x73, 0x65, 0x71, 0x75, 0x65, 0x6e, 0x74, 0x69, 0x61, 0x6c, 0x5f,
  0x31, 0x2f, 0x63, 0x6f, 0x6e, 0x76, 0x32, 0x64, 0x5f, 0x31, 0x5f, 0x32,
  0x2f, 0x53, 0x71, 0x75, 0x65, 0x65, 0x7a, 0x65, 0x00, 0x00, 0x00, 0x00,
  0x04, 0x00, 0x00, 0x00, 0x01, 0x00, 0x00, 0x00, 0x18, 0x00, 0x00, 0x00,
  0x14, 0x00, 0x00, 0x00, 0x10, 0x00, 0x00, 0x00, 0x3e, 0xfa, 0xff, 0xff,
  0x00, 0x00, 0x00, 0x01, 0x14, 0x00, 0x00, 0x00, 0x24, 0x00, 0x00, 0x00,
  0x24, 0x00, 0x00, 0x00, 0x11, 0x00, 0x00, 0x00, 0x98, 0x00, 0x00, 0x00,
  0x04, 0x00, 0x00, 0x00, 0xff, 0xff, 0xff, 0xff, 0x18, 0x00, 0x00, 0x00,
  0x14, 0x00, 0x00, 0x00, 0x08, 0x00, 0x00, 0x00, 0x28, 0xfa, 0xff, 0xff,
  0x77, 0x00, 0x00, 0x00, 0x73, 0x65, 0x71, 0x75, 0x65, 0x6e, 0x74, 0x69,
  0x61, 0x6c, 0x5f, 0x31, 0x2f, 0x64, 0x65, 0x70, 0x74, 0x68, 0x77, 0x69,
  0x73, 0x65, 0x5f, 0x63, 0x6f, 0x6e, 0x76, 0x32, 0x64, 0x5f, 0x31, 0x2f,
  0x52, 0x65, 0x6c, 0x75, 0x3b, 0x73, 0x65, 0x71, 0x75, 0x65, 0x6e, 0x74,
  0x69, 0x61, 0x6c, 0x5f, 0x31, 0x2f, 0x64, 0x65, 0x70, 0x74, 0x68, 0x77,
  0x69, 0x73, 0x65, 0x5f, 0x63, 0x6f, 0x6e, 0x76, 0x32, 0x64, 0x5f, 0x31,
  0x2f, 0x42, 0x69, 0x61, 0x73, 0x41, 0x64, 0x64, 0x3b, 0x73, 0x65, 0x71,
  0x75, 0x65, 0x6e, 0x74, 0x69, 0x61, 0x6c, 0x5f, 0x31, 0x2f, 0x64, 0x65,
  0x70, 0x74, 0x68, 0x77, 0x69, 0x73, 0x65, 0x5f, 0x63, 0x6f, 0x6e, 0x76,
  0x32, 0x64, 0x5f, 0x31, 0x2f, 0x64, 0x65, 0x70, 0x74, 0x68, 0x77, 0x69,
  0x73, 0x65, 0x3b, 0x00, 0x04, 0x00, 0x00, 0x00, 0x01, 0x00, 0x00, 0x00,
  0x18, 0x00, 0x00, 0x00, 0x14, 0x00, 0x00, 0x00, 0x08, 0x00, 0x00, 0x00,
  0x02, 0xfb, 0xff, 0xff, 0x00, 0x00, 0x00, 0x01, 0x14, 0x00, 0x00, 0x00,
  0x24, 0x00, 0x00, 0x00, 0x24, 0x00, 0x00, 0x00, 0x10, 0x00, 0x00, 0x00,
  0x48, 0x00, 0x00, 0x00, 0x04, 0x00, 0x00, 0x00, 0xff, 0xff, 0xff, 0xff,
  0x18, 0x00, 0x00, 0x00, 0x14, 0x00, 0x00, 0x00, 0x08, 0x00, 0x00, 0x00,
  0xec, 0xfa, 0xff, 0xff, 0x26, 0x00, 0x00, 0x00, 0x73, 0x65, 0x71, 0x75,
  0x65, 0x6e, 0x74, 0x69, 0x61, 0x6c, 0x5f, 0x31, 0x2f, 0x6d, 0x61, 0x78,
  0x5f, 0x70, 0x6f, 0x6f, 0x6c, 0x69, 0x6e, 0x67, 0x32, 0x64, 0x5f, 0x31,
  0x2f, 0x4d, 0x61, 0x78, 0x50, 0x6f, 0x6f, 0x6c, 0x32, 0x64, 0x00, 0x00,
  0x04, 0x00, 0x00, 0x00, 0x01, 0x00, 0x00, 0x00, 0x18, 0x00, 0x00, 0x00,
  0x14, 0x00, 0x00, 0x00, 0x08, 0x00, 0x00, 0x00, 0x76, 0xfb, 0xff, 0xff,
  0x00, 0x00, 0x00, 0x01, 0x14, 0x00, 0x00, 0x00, 0x24, 0x00, 0x00, 0x00,
  0x24, 0x00, 0x00, 0x00, 0x0f, 0x00, 0x00, 0x00, 0x80, 0x00, 0x00, 0x00,
  0x04, 0x00, 0x00, 0x00, 0xff, 0xff, 0xff, 0xff, 0x31, 0x00, 0x00, 0x00,
  0x28, 0x00, 0x00, 0x00, 0x08, 0x00, 0x00, 0x00, 0x60, 0xfb, 0xff, 0xff,
  0x5c, 0x00, 0x00, 0x00, 0x73, 0x65, 0x71, 0x75, 0x65, 0x6e, 0x74, 0x69,
  0x61, 0x6c, 0x5f, 0x31, 0x2f, 0x63, 0x6f, 0x6e, 0x76, 0x32, 0x64, 0x5f,
  0x31, 0x2f, 0x52, 0x65, 0x6c, 0x75, 0x3b, 0x73, 0x65, 0x71, 0x75, 0x65,
  0x6e, 0x74, 0x69, 0x61, 0x6c, 0x5f, 0x31, 0x2f, 0x63, 0x6f, 0x6e, 0x76,
  0x32, 0x64, 0x5f, 0x31, 0x2f, 0x42, 0x69, 0x61, 0x73, 0x41, 0x64, 0x64,
  0x3b, 0x73, 0x65, 0x71, 0x75, 0x65, 0x6e, 0x74, 0x69, 0x61, 0x6c, 0x5f,
  0x31, 0x2f, 0x63, 0x6f, 0x6e, 0x76, 0x32, 0x64, 0x5f, 0x31, 0x2f, 0x63,
  0x6f, 0x6e, 0x76, 0x6f, 0x6c, 0x75, 0x74, 0x69, 0x6f, 0x6e, 0x3b, 0x31,
  0x00, 0x00, 0x00, 0x00, 0x04, 0x00, 0x00, 0x00, 0x01, 0x00, 0x00, 0x00,
  0x31, 0x00, 0x00, 0x00, 0x28, 0x00, 0x00, 0x00, 0x08, 0x00, 0x00, 0x00,
  0x72, 0xfc, 0xff, 0xff, 0x00, 0x00, 0x00, 0x01, 0x10, 0x00, 0x00, 0x00,
  0x10, 0x00, 0x00, 0x00, 0x0e, 0x00, 0x00, 0x00, 0x68, 0x00, 0x00, 0x00,
  0xf4, 0xfb, 0xff, 0xff, 0x5b, 0x00, 0x00, 0x00, 0x73, 0x65, 0x71, 0x75,
  0x65, 0x6e, 0x74, 0x69, 0x61, 0x6c, 0x5f, 0x31, 0x2f, 0x63, 0x6f, 0x6e,
  0x76, 0x32, 0x64, 0x5f, 0x31, 0x2f, 0x52, 0x65, 0x6c, 0x75, 0x3b, 0x73,
  0x65, 0x71, 0x75, 0x65, 0x6e, 0x74, 0x69, 0x61, 0x6c, 0x5f, 0x31, 0x2f,
  0x63, 0x6f, 0x6e, 0x76, 0x32, 0x64, 0x5f, 0x31, 0x2f, 0x42, 0x69, 0x61,
  0x73, 0x41, 0x64, 0x64, 0x3b, 0x73, 0x65, 0x71, 0x75, 0x65, 0x6e, 0x74,
  0x69, 0x61, 0x6c, 0x5f, 0x31, 0x2f, 0x63, 0x6f, 0x6e, 0x76, 0x32, 0x64,
  0x5f, 0x31, 0x2f, 0x63, 0x6f, 0x6e, 0x76, 0x6f, 0x6c, 0x75, 0x74, 0x69,
  0x6f, 0x6e, 0x3b, 0x00, 0x01, 0x00, 0x00, 0x00, 0x08, 0x00, 0x00, 0x00,
  0xf6, 0xfc, 0xff, 0xff, 0x00, 0x00, 0x00, 0x01, 0x10, 0x00, 0x00, 0x00,
  0x10, 0x00, 0x00, 0x00, 0x0d, 0x00, 0x00, 0x00, 0x30, 0x00, 0x00, 0x00,
  0x78, 0xfc, 0xff, 0xff, 0x21, 0x00, 0x00, 0x00, 0x73, 0x65, 0x71, 0x75,
  0x65, 0x6e, 0x74, 0x69, 0x61, 0x6c, 0x5f, 0x31, 0x2f, 0x63, 0x6f, 0x6e,
  0x76, 0x32, 0x64, 0x5f, 0x31, 0x2f, 0x63, 0x6f, 0x6e, 0x76, 0x6f, 0x6c,
  0x75, 0x74, 0x69, 0x6f, 0x6e, 0x00, 0x00, 0x00, 0x04, 0x00, 0x00, 0x00,
  0x08, 0x00, 0x00, 0x00, 0x03, 0x00, 0x00, 0x00, 0x03, 0x00, 0x00, 0x00,
  0x01, 0x00, 0x00, 0x00, 0x00, 0x00, 0x16, 0x00, 0x1c, 0x00, 0x18, 0x00,
  0x17, 0x00, 0x10, 0x00, 0x0c, 0x00, 0x08, 0x00, 0x00, 0x00, 0x00, 0x00,
  0x00, 0x00, 0x07, 0x00, 0x16, 0x00, 0x00, 0x00, 0x00, 0x00, 0x00, 0x01,
  0x14, 0x00, 0x00, 0x00, 0x14, 0x00, 0x00, 0x00, 0x0c, 0x00, 0x00, 0x00,
  0x00, 0x00, 0x00, 0x02, 0x4c, 0x00, 0x00, 0x00, 0xec, 0xfc, 0xff, 0xff,
  0x3e, 0x00, 0x00, 0x00, 0x73, 0x65, 0x71, 0x75, 0x65, 0x6e, 0x74, 0x69,
  0x61, 0x6c, 0x5f, 0x31, 0x2f, 0x67, 0x6c, 0x6f, 0x62, 0x61, 0x6c, 0x5f,
  0x61, 0x76, 0x65, 0x72, 0x61, 0x67, 0x65, 0x5f, 0x70, 0x6f, 0x6f, 0x6c,
  0x69, 0x6e, 0x67, 0x32, 0x64, 0x5f, 0x31, 0x2f, 0x4d, 0x65, 0x61, 0x6e,
  0x2f, 0x72, 0x65, 0x64, 0x75, 0x63, 0x74, 0x69, 0x6f, 0x6e, 0x5f, 0x69,
  0x6e, 0x64, 0x69, 0x63, 0x65, 0x73, 0x00, 0x00, 0x01, 0x00, 0x00, 0x00,
  0x02, 0x00, 0x00, 0x00, 0xd2, 0xfd, 0xff, 0xff, 0x00, 0x00, 0x00, 0x01,
  0x10, 0x00, 0x00, 0x00, 0x10, 0x00, 0x00, 0x00, 0x0b, 0x00, 0x00, 0x00,
  0x1c, 0x00, 0x00, 0x00, 0x54, 0xfd, 0xff, 0xff, 0x0f, 0x00, 0x00, 0x00,
  0x61, 0x72, 0x69, 0x74, 0x68, 0x2e, 0x63, 0x6f, 0x6e, 0x73, 0x74, 0x61,
  0x6e, 0x74, 0x39, 0x00, 0x02, 0x00, 0x00, 0x00, 0x04, 0x00, 0x00, 0x00,
  0x20, 0x00, 0x00, 0x00, 0x0e, 0xfe, 0xff, 0xff, 0x00, 0x00, 0x00, 0x01,
  0x10, 0x00, 0x00, 0x00, 0x10, 0x00, 0x00, 0x00, 0x0a, 0x00, 0x00, 0x00,
  0x1c, 0x00, 0x00, 0x00, 0x90, 0xfd, 0xff, 0xff, 0x0f, 0x00, 0x00, 0x00,
  0x61, 0x72, 0x69, 0x74, 0x68, 0x2e, 0x63, 0x6f, 0x6e, 0x73, 0x74, 0x61,
  0x6e, 0x74, 0x38, 0x00, 0x04, 0x00, 0x00, 0x00, 0x01, 0x00, 0x00, 0x00,
  0x03, 0x00, 0x00, 0x00, 0x03, 0x00, 0x00, 0x00, 0x08, 0x00, 0x00, 0x00,
  0x52, 0xfe, 0xff, 0xff, 0x00, 0x00, 0x00, 0x01, 0x10, 0x00, 0x00, 0x00,
  0x10, 0x00, 0x00, 0x00, 0x09, 0x00, 0x00, 0x00, 0x1c, 0x00, 0x00, 0x00,
  0xd4, 0xfd, 0xff, 0xff, 0x0f, 0x00, 0x00, 0x00, 0x61, 0x72, 0x69, 0x74,
  0x68, 0x2e, 0x63, 0x6f, 0x6e, 0x73, 0x74, 0x61, 0x6e, 0x74, 0x37, 0x00,
  0x04, 0x00, 0x00, 0x00, 0x10, 0x00, 0x00, 0x00, 0x01, 0x00, 0x00, 0x00,
  0x01, 0x00, 0x00, 0x00, 0x08, 0x00, 0x00, 0x00, 0x96, 0xfe, 0xff, 0xff,
  0x00, 0x00, 0x00, 0x01, 0x10, 0x00, 0x00, 0x00, 0x10, 0x00, 0x00, 0x00,
  0x08, 0x00, 0x00, 0x00, 0x1c, 0x00, 0x00, 0x00, 0x18, 0xfe, 0xff, 0xff,
  0x0f, 0x00, 0x00, 0x00, 0x61, 0x72, 0x69, 0x74, 0x68, 0x2e, 0x63, 0x6f,
  0x6e, 0x73, 0x74, 0x61, 0x6e, 0x74, 0x36, 0x00, 0x04, 0x00, 0x00, 0x00,
  0x01, 0x00, 0x00, 0x00, 0x03, 0x00, 0x00, 0x00, 0x03, 0x00, 0x00, 0x00,
  0x10, 0x00, 0x00, 0x00, 0xda, 0xfe, 0xff, 0xff, 0x00, 0x00, 0x00, 0x01,
  0x10, 0x00, 0x00, 0x00, 0x10, 0x00, 0x00, 0x00, 0x07, 0x00, 0x00, 0x00,
  0x1c, 0x00, 0x00, 0x00, 0x5c, 0xfe, 0xff, 0xff, 0x0f, 0x00, 0x00, 0x00,
  0x61, 0x72, 0x69, 0x74, 0x68, 0x2e, 0x63, 0x6f, 0x6e, 0x73, 0x74, 0x61,
  0x6e, 0x74, 0x35, 0x00, 0x04, 0x00, 0x00, 0x00, 0x20, 0x00, 0x00, 0x00,
  0x01, 0x00, 0x00, 0x00, 0x01, 0x00, 0x00, 0x00, 0x10, 0x00, 0x00, 0x00,
  0x1e, 0xff, 0xff, 0xff, 0x00, 0x00, 0x00, 0x01, 0x10, 0x00, 0x00, 0x00,
  0x10, 0x00, 0x00, 0x00, 0x06, 0x00, 0x00, 0x00, 0x1c, 0x00, 0x00, 0x00,
  0xa0, 0xfe, 0xff, 0xff, 0x0f, 0x00, 0x00, 0x00, 0x61, 0x72, 0x69, 0x74,
  0x68, 0x2e, 0x63, 0x6f, 0x6e, 0x73, 0x74, 0x61, 0x6e, 0x74, 0x34, 0x00,
  0x01, 0x00, 0x00, 0x00, 0x04, 0x00, 0x00, 0x00, 0x56, 0xff, 0xff, 0xff,
  0x00, 0x00, 0x00, 0x01, 0x10, 0x00, 0x00, 0x00, 0x10, 0x00, 0x00, 0x00,
  0x05, 0x00, 0x00, 0x00, 0x1c, 0x00, 0x00, 0x00, 0xd8, 0xfe, 0xff, 0xff,
  0x0f, 0x00, 0x00, 0x00, 0x61, 0x72, 0x69, 0x74, 0x68, 0x2e, 0x63, 0x6f,
  0x6e, 0x73, 0x74, 0x61, 0x6e, 0x74, 0x33, 0x00, 0x01, 0x00, 0x00, 0x00,
  0x08, 0x00, 0x00, 0x00, 0x8e, 0xff, 0xff, 0xff, 0x00, 0x00, 0x00, 0x01,
  0x10, 0x00, 0x00, 0x00, 0x10, 0x00, 0x00, 0x00, 0x04, 0x00, 0x00, 0x00,
  0x1c, 0x00, 0x00, 0x00, 0x10, 0xff, 0xff, 0xff, 0x0f, 0x00, 0x00, 0x00,
  0x61, 0x72, 0x69, 0x74, 0x68, 0x2e, 0x63, 0x6f, 0x6e, 0x73, 0x74, 0x61,
  0x6e, 0x74, 0x32, 0x00, 0x01, 0x00, 0x00, 0x00, 0x10, 0x00, 0x00, 0x00,
  0xc6, 0xff, 0xff, 0xff, 0x00, 0x00, 0x00, 0x01, 0x10, 0x00, 0x00, 0x00,
  0x10, 0x00, 0x00, 0x00, 0x03, 0x00, 0x00, 0x00, 0x1c, 0x00, 0x00, 0x00,
  0x48, 0xff, 0xff, 0xff, 0x0f, 0x00, 0x00, 0x00, 0x61, 0x72, 0x69, 0x74,
  0x68, 0x2e, 0x63, 0x6f, 0x6e, 0x73, 0x74, 0x61, 0x6e, 0x74, 0x31, 0x00,
  0x01, 0x00, 0x00, 0x00, 0x10, 0x00, 0x00, 0x00, 0x00, 0x00, 0x16, 0x00,
  0x18, 0x00, 0x14, 0x00, 0x00, 0x00, 0x10, 0x00, 0x0c, 0x00, 0x08, 0x00,
  0x00, 0x00, 0x00, 0x00, 0x00, 0x00, 0x07, 0x00, 0x16, 0x00, 0x00, 0x00,
  0x00, 0x00, 0x00, 0x01, 0x10, 0x00, 0x00, 0x00, 0x10, 0x00, 0x00, 0x00,
  0x02, 0x00, 0x00, 0x00, 0x1c, 0x00, 0x00, 0x00, 0x98, 0xff, 0xff, 0xff,
  0x0e, 0x00, 0x00, 0x00, 0x61, 0x72, 0x69, 0x74, 0x68, 0x2e, 0x63, 0x6f,
  0x6e, 0x73, 0x74, 0x61, 0x6e, 0x74, 0x00, 0x00, 0x01, 0x00, 0x00, 0x00,
  0x20, 0x00, 0x00, 0x00, 0x00, 0x00, 0x16, 0x00, 0x1c, 0x00, 0x18, 0x00,
  0x00, 0x00, 0x14, 0x00, 0x10, 0x00, 0x0c, 0x00, 0x00, 0x00, 0x00, 0x00,
  0x08, 0x00, 0x07, 0x00, 0x16, 0x00, 0x00, 0x00, 0x00, 0x00, 0x00, 0x01,
  0x14, 0x00, 0x00, 0x00, 0x28, 0x00, 0x00, 0x00, 0x28, 0x00, 0x00, 0x00,
  0x01, 0x00, 0x00, 0x00, 0x44, 0x00, 0x00, 0x00, 0x04, 0x00, 0x00, 0x00,
  0xff, 0xff, 0xff, 0xff, 0x31, 0x00, 0x00, 0x00, 0x28, 0x00, 0x00, 0x00,
  0x01, 0x00, 0x00, 0x00, 0x04, 0x00, 0x04, 0x00, 0x04, 0x00, 0x00, 0x00,
  0x1e, 0x00, 0x00, 0x00, 0x73, 0x65, 0x72, 0x76, 0x69, 0x6e, 0x67, 0x5f,
  0x64, 0x65, 0x66, 0x61, 0x75, 0x6c, 0x74, 0x5f, 0x6b, 0x65, 0x72, 0x61,
  0x73, 0x5f, 0x74, 0x65, 0x6e, 0x73, 0x6f, 0x72, 0x3a, 0x30, 0x00, 0x00,
  0x04, 0x00, 0x00, 0x00, 0x01, 0x00, 0x00, 0x00, 0x31, 0x00, 0x00, 0x00,
  0x28, 0x00, 0x00, 0x00, 0x01, 0x00, 0x00, 0x00, 0x05, 0x00, 0x00, 0x00,
  0x50, 0x00, 0x00, 0x00, 0x34, 0x00, 0x00, 0x00, 0x24, 0x00, 0x00, 0x00,
  0x14, 0x00, 0x00, 0x00, 0x04, 0x00, 0x00, 0x00, 0xd0, 0xff, 0xff, 0xff,
  0x09, 0x00, 0x00, 0x00, 0x00, 0x00, 0x00, 0x09, 0xdc, 0xff, 0xff, 0xff,
  0x28, 0x00, 0x00, 0x00, 0x00, 0x00, 0x00, 0x28, 0xe8, 0xff, 0xff, 0xff,
  0x04, 0x00, 0x00, 0x00, 0x00, 0x00, 0x00, 0x04, 0xf4, 0xff, 0xff, 0xff,
  0x11, 0x00, 0x00, 0x00, 0x00, 0x00, 0x00, 0x11, 0x0c, 0x00, 0x0c, 0x00,
  0x0b, 0x00, 0x00, 0x00, 0x00, 0x00, 0x04, 0x00, 0x0c, 0x00, 0x00, 0x00,
  0x03, 0x00, 0x00, 0x00, 0x00, 0x00, 0x00, 0x03
};
unsigned int model_exports_model_quant_tflite_len = 8780;
